{
  "version": "1.0",
  "truncation": null,
  "padding": null,
  "added_tokens": [
    {
      "id": 0,
      "content": "<pad>",
      "single_word": false,
      "lstrip": false,
      "rstrip": false,
      "normalized": false,
      "special": true
    },
    {
      "id": 1,
      "content": "<unk>",
      "single_word": false,
      "lstrip": false,
      "rstrip": false,
      "normalized": false,
      "special": true
    },
    {
      "id": 2,
      "content": "<sos>",
      "single_word": false,
      "lstrip": false,
      "rstrip": false,
      "normalized": false,
      "special": true
    },
    {
      "id": 3,
      "content": "<eos>",
      "single_word": false,
      "lstrip": false,
      "rstrip": false,
      "normalized": false,
      "special": true
    }
  ],
  "normalizer": null,
  "pre_tokenizer": {
    "type": "ByteLevel",
    "add_prefix_space": true,
    "trim_offsets": true,
    "use_regex": true
  },
  "post_processor": null,
  "decoder": null,
  "model": {
    "type": "BPE",
    "dropout": null,
    "unk_token": "<unk>",
    "continuing_subword_prefix": null,
    "end_of_word_suffix": null,
    "fuse_unk": false,
    "byte_fallback": false,
    "ignore_merges": false,
    "vocab": {
      "<pad>": 0,
      "<unk>": 1,
      "<sos>": 2,
      "<eos>": 3,
      "!": 4,
      "\"": 5,
      "%": 6,
      "&": 7,
      "'": 8,
      "(": 9,
      ")": 10,
      ",": 11,
      "-": 12,
      ".": 13,
      "0": 14,
      "1": 15,
      "2": 16,
      "3": 17,
      "4": 18,
      "5": 19,
      "6": 20,
      "7": 21,
      "8": 22,
      "9": 23,
      ";": 24,
      "=": 25,
      ">": 26,
      "?": 27,
      "_": 28,
      "a": 29,
      "b": 30,
      "c": 31,
      "d": 32,
      "e": 33,
      "f": 34,
      "g": 35,
      "h": 36,
      "i": 37,
      "j": 38,
      "k": 39,
      "l": 40,
      "m": 41,
      "n": 42,
      "o": 43,
      "p": 44,
      "q": 45,
      "r": 46,
      "s": 47,
      "t": 48,
      "u": 49,
      "v": 50,
      "w": 51,
      "x": 52,
      "y": 53,
      "z": 54,
      "¡": 55,
      "¢": 56,
      "£": 57,
      "¥": 58,
      "¦": 59,
      "§": 60,
      "¨": 61,
      "©": 62,
      "ª": 63,
      "«": 64,
      "¬": 65,
      "¯": 66,
      "°": 67,
      "±": 68,
      "²": 69,
      "³": 70,
      "´": 71,
      "µ": 72,
      "·": 73,
      "¹": 74,
      "º": 75,
      "»": 76,
      "½": 77,
      "¿": 78,
      "Ã": 79,
      "Ä": 80,
      "Å": 81,
      "Æ": 82,
      "á": 83,
      "â": 84,
      "Ċ": 85,
      "Ġ": 86,
      "Ģ": 87,
      "ģ": 88,
      "ĥ": 89,
      "ħ": 90,
      "ĩ": 91,
      "ī": 92,
      "ĭ": 93,
      "į": 94,
      "ı": 95,
      "ĳ": 96,
      "ĵ": 97,
      "ķ": 98,
      "Ĺ": 99,
      "Ļ": 100,
      "Ľ": 101,
      "Ŀ": 102,
      "Ł": 103,
      "ł": 104,
      "Ń": 105,
      "á»": 106,
      "áº": 107,
      "Ġt": 108,
      "ng": 109,
      "Ġc": 110,
      "nh": 111,
      "Ġv": 112,
      "Ġth": 113,
      "Ġh": 114,
      "Ġ.": 115,
      "Ãł": 116,
      "iá»": 117,
      "ĠÄ": 118,
      "ĠÄĳ": 119,
      "Ãª": 120,
      "Ġg": 121,
      "Ãªn": 122,
      "Ġd": 123,
      "Ġk": 124,
      "iáº": 125,
      "Ġ,": 126,
      "Ġnh": 127,
      "Ġl": 128,
      "Ã¡": 129,
      "Ġs": 130,
      "Ã´": 131,
      "áº¡": 132,
      "Ġch": 133,
      "Ġb": 134,
      "Æ°": 135,
      "áº§": 136,
      "iÃªn": 137,
      "ĠviÃªn": 138,
      "Ġkh": 139,
      "Ġm": 140,
      "Ġgiáº": 141,
      "Ġgiáº£": 142,
      "Ã¬": 143,
      "Ġhá»": 144,
      "Ġtr": 145,
      "Ġn": 146,
      "Ã³": 147,
      "Ġgiáº£ng": 148,
      "Ġthá»": 149,
      "iá»ĩ": 150,
      "áº¥": 151,
      "áºŃ": 152,
      "áº§y": 153,
      "ĠÄĳá»": 154,
      "inh": 155,
      "á»Ľ": 156,
      "Ġdáº¡": 157,
      "Ġr": 158,
      "Ġdáº¡y": 159,
      "Ã¬nh": 160,
      "Ãłi": 161,
      "Ġtháº§y": 162,
      "Ġsinh": 163,
      "įc": 164,
      "Ġhá»įc": 165,
      "iáº¿": 166,
      "Ã´ng": 167,
      "áº¥t": 168,
      "ĠtáºŃ": 169,
      "Æ¡": 170,
      "ĠvÃł": 171,
      "ĠbÃłi": 172,
      "áº£": 173,
      "ĠtÃ¬nh": 174,
      "iá»ĥ": 175,
      "Ġdá»": 176,
      "Ã¢": 177,
      "Ġp": 178,
      "ĠkhÃ´ng": 179,
      "Ġph": 180,
      "Æ°á»": 181,
      "ĠcÃ³": 182,
      "iá»ĩt": 183,
      "áº¿": 184,
      "uy": 185,
      "Ġráº¥t": 186,
      "Ġnhiá»ĩt": 187,
      "Ã¡c": 188,
      "ģu": 189,
      "Ġq": 190,
      "iá»ģu": 191,
      "iá»ĥu": 192,
      "Ġng": 193,
      "Ġqu": 194,
      "Ġcho": 195,
      "Ġhiá»ĥu": 196,
      "±c": 197,
      "Ġgi": 198,
      "ÃŃ": 199,
      "Ġnhiá»ģu": 200,
      "Ãº": 201,
      "á»ĳ": 202,
      "áº§n": 203,
      "Ã´n": 204,
      "ĠcÃ¡c": 205,
      "ĠlÃł": 206,
      "ĠtáºŃp": 207,
      "á»Ľi": 208,
      "Ġcá»": 209,
      "Ġdá»ħ": 210,
      "Ġthá»±c": 211,
      "ĠhÆ¡": 212,
      "Æ°á»£": 213,
      "á»ģ": 214,
      "á»Ļ": 215,
      "ĠcÃ´": 216,
      "©c": 217,
      "ay": 218,
      "em": 219,
      "ong": 220,
      "iáº¿n": 221,
      "Ã¢m": 222,
      "áº¯": 223,
      "ĠmÃ´n": 224,
      "ĠnÃªn": 225,
      "ĠtÃ¢m": 226,
      "Ãłnh": 227,
      "Ġvá»Ľi": 228,
      "Ġthá»©c": 229,
      "Ã²": 230,
      "Æ°á»£c": 231,
      "ĠÄĳÆ°á»£c": 232,
      "Ġkiáº¿n": 233,
      "ĠhÆ¡n": 234,
      "ĠtáºŃn": 235,
      "Ġem": 236,
      "Ġcá»§": 237,
      "Ġlá»Ľ": 238,
      "Ġcá»§a": 239,
      "Ã¡o": 240,
      "Ġtiáº¿": 241,
      "Ġhay": 242,
      "Ġngh": 243,
      "áº¿t": 244,
      "Ġlá»Ľp": 245,
      "an": 246,
      "ĠhÃłnh": 247,
      "Ġchá»": 248,
      "ung": 249,
      "Ŀi": 250,
      "Ġcáº§n": 251,
      "Ã½": 252,
      "ĠnhÆ°": 253,
      "ĠÄĳá»ĥ": 254,
      "Ġtrong": 255,
      "Ġgiá»": 256,
      "Æ°a": 257,
      "á»¯": 258,
      "Ġtá»ĳ": 259,
      "Ġká»": 260,
      "ĠlÃłm": 261,
      "ĠquÃ¡": 262,
      "Äĥ": 263,
      "ĠkhÃ³": 264,
      "Ġtá»ĳt": 265,
      "áº¡t": 266,
      "Ġtá»": 267,
      "Æ°á»Ľ": 268,
      "Ġsá»": 269,
      "©ng": 270,
      "uyáº¿t": 271,
      "Ġx": 272,
      "Ġdá»¥": 273,
      "ui": 274,
      "Ġvui": 275,
      "Æ°Æ¡": 276,
      "Æ°Æ¡ng": 277,
      "ĠtÃŃ": 278,
      "Ġbá»": 279,
      "áº«": 280,
      "iá»ĩu": 281,
      "ĠgiÃ¡o": 282,
      "Ġvá»ģ": 283,
      "Ã¡p": 284,
      "ĠchÆ°a": 285,
      "á»ģn": 286,
      "anh": 287,
      "Ġtruy": 288,
      "á»¯ng": 289,
      "ĠlÃ½": 290,
      "áº«n": 291,
      "ĠcÃ¡ch": 292,
      "Ġtruyá»ģn": 293,
      "á»Ļt": 294,
      "ĠtrÃ¬nh": 295,
      "Ġmá»Ļt": 296,
      "ĠÄĳáº¡t": 297,
      "Ġnhá»¯ng": 298,
      "ch": 299,
      "Ŀng": 300,
      "Æ°á»Ŀng": 301,
      "ĠnÃł": 302,
      "Ġgiá»Ŀ": 303,
      "Ġkhi": 304,
      "Äĥng": 305,
      "ĠnÃ³": 306,
      "iáº¿t": 307,
      "áº¡i": 308,
      "ĠtÃŃnh": 309,
      "Ġthá»ĥ": 310,
      "áº£i": 311,
      "Ã²ng": 312,
      "ĠÄĳá»ģ": 313,
      "áº¯c": 314,
      "Ġthá»Ŀi": 315,
      "Ã¡n": 316,
      "ao": 317,
      "Ġtrá»": 318,
      "wz": 319,
      "ĠÄĳá»Ļ": 320,
      "ķi": 321,
      "Ã¹": 322,
      "áº·": 323,
      "ĠhÆ°á»Ľ": 324,
      "Ġdáº«n": 325,
      "Ġchá»ī": 326,
      "Ġmá»": 327,
      "áº¿n": 328,
      "Ãªm": 329,
      "iá»ĩn": 330,
      "Ġthuyáº¿t": 331,
      "Ġgiáº£i": 332,
      "ĠlÃªn": 333,
      "ĠnÃ³i": 334,
      "Ġviá»ĩ": 335,
      "Ġviá»ĩc": 336,
      "Ġná»Ļ": 337,
      "Ãºng": 338,
      "ĠÄĳáº¿n": 339,
      "iá»ĥm": 340,
      "Ġdá»¥ng": 341,
      "ĠnhÆ°ng": 342,
      "Ġgian": 343,
      "Ãºp": 344,
      "ĠhÆ°á»Ľng": 345,
      "ĠhÆ¡i": 346,
      "Ġbu": 347,
      "ĠgiÃºp": 348,
      "de": 349,
      "ĠmÃ¡": 350,
      "Ã²n": 351,
      "Ġ!": 352,
      "Ġdung": 353,
      "Ġká»¹": 354,
      "ĠcÃ²n": 355,
      "ĠthÃ¬": 356,
      "Ġtiáº¿t": 357,
      "áº£m": 358,
      "ĠcÅ": 359,
      "ĠthÃªm": 360,
      "Ġbáº£": 361,
      "Ġbuá»": 362,
      "Ġlá»": 363,
      "ĠtrÃªn": 364,
      "Ġná»Ļi": 365,
      "Ġtiáº¿p": 366,
      "ĠnÃły": 367,
      "ĠÄĳá»ĵ": 368,
      "Ġpháº§n": 369,
      "Ġquan": 370,
      "Ġláº¡i": 371,
      "Ġbá»ĭ": 372,
      "Ġthu": 373,
      "ĠmÃł": 374,
      "ĠÄĳá»§": 375,
      "Ġra": 376,
      "ĠrÃ": 377,
      "áº»": 378,
      "ĠnÄĥng": 379,
      "ĠÃŃ": 380,
      "Ġquáº£": 381,
      "Ã¢u": 382,
      "ĠphÃ²ng": 383,
      "Ã¢n": 384,
      "ĠcÅ©ng": 385,
      "Ġho": 386,
      "li": 387,
      "ĠÄĳá»Ļng": 388,
      "ĠÄĳiá»ĥm": 389,
      "áº¥p": 390,
      "ĠvÃło": 391,
      "Ġá»": 392,
      "Ġtáº¡": 393,
      "ĠÄĳi": 394,
      "uyÃªn": 395,
      "ĠtÃłi": 396,
      "Ġtáº¡o": 397,
      "ĠkhÃ¡": 398,
      "Ġliá»ĩu": 399,
      "Ġsá»±": 400,
      "áºŃt": 401,
      "ĠrÃµ": 402,
      "Ġhá»£": 403,
      "Ġthi": 404,
      "Ġhá»£p": 405,
      "áº¥y": 406,
      "uá»ĳ": 407,
      "ĠmÃ¡y": 408,
      "Ġpháº£i": 409,
      "ĠÃ¡n": 410,
      "Ġcáº¥p": 411,
      "ĠÄĳÃºng": 412,
      "Ġsá»ĳ": 413,
      "Ġsá»Ń": 414,
      "Ġtáº¿": 415,
      "Ġváº»": 416,
      "ĠnhÃł": 417,
      "Ãºc": 418,
      "Æ°á»£ng": 419,
      "Ġnhanh": 420,
      "Ġsli": 421,
      "Ġnghá»": 422,
      "Ġbuá»ķi": 423,
      "ang": 424,
      "Ġtá»«": 425,
      "Ġslide": 426,
      "Ġhiá»ĩu": 427,
      "Ġká»³": 428,
      "áº§u": 429,
      "Ġlu": 430,
      "įng": 431,
      "Ġvá»": 432,
      "au": 433,
      "ĠÄĳáº§y": 434,
      "ĠthÆ°á»Ŀng": 435,
      "ĠgÃ¬": 436,
      "Ġchi": 437,
      "ĠphÃ¡p": 438,
      "áºŃp": 439,
      "Ã£": 440,
      "Ġthiáº¿t": 441,
      "Ġmá»Ľi": 442,
      "le": 443,
      "ĠvÃ¬": 444,
      "Ã´i": 445,
      "ĠÃŃt": 446,
      "ĠvÃŃ": 447,
      "Ãłng": 448,
      "Ġdo": 449,
      "ĠlÆ°á»£ng": 450,
      "Ġcao": 451,
      "eo": 452,
      "áºŃn": 453,
      "Ã¡t": 454,
      "ıi": 455,
      "áº¡n": 456,
      "Ġkháº£": 457,
      "Ġtheo": 458,
      "áº¯m": 459,
      "jwz": 460,
      "wzjwz": 461,
      "Ġwzjwz": 462,
      "Æ°á»Ľc": 463,
      "Ġnghe": 464,
      "ĠphÆ°Æ¡ng": 465,
      "Ġco": 466,
      "áº¥n": 467,
      "ĠcÃ´ng": 468,
      "ĠthÃ´ng": 469,
      "Ã¢y": 470,
      "ĠluÃ´n": 471,
      "uyá»": 472,
      "ai": 473,
      "ĠbÃ¡o": 474,
      "ĵi": 475,
      "Ġthiá»ĩn": 476,
      "ĠÄĳÃ¡p": 477,
      "áº½": 478,
      "Ġcung": 479,
      "Ġcáº£m": 480,
      "in": 481,
      "Ġbáº£o": 482,
      "ĠÄĳÃ³": 483,
      "ĠÃ½": 484,
      "ĠtrÆ°á»Ŀng": 485,
      "Ġanh": 486,
      "ÃŃch": 487,
      "Ġbiáº¿t": 488,
      "uyá»ĩ": 489,
      "Ġtháº¥y": 490,
      "iáº¿u": 491,
      "Ġváº¥n": 492,
      "Ãłn": 493,
      "Ġhuyáº¿t": 494,
      "ĠÄĳÃ£": 495,
      "Ġcháº¥t": 496,
      "ĠtrÆ°á»Ľc": 497,
      "Ã©": 498,
      "Ġtá»±": 499,
      "á»ĵi": 500,
      "Ãªu": 501,
      "áº·c": 502,
      "Ġhá»ıi": 503,
      "Ġcuá»ĳ": 504,
      "Ġmong": 505,
      "Ġtiáº¿ng": 506,
      "Ġnghá»ī": 507,
      "Ġsau": 508,
      "Ãºt": 509,
      "ĠkhÃ¡c": 510,
      "¥c": 511,
      "iá»ħ": 512,
      "Ġmáº¯c": 513,
      "Ġy": 514,
      "ĠliÃªn": 515,
      "±ng": 516,
      "Ġhá»©ng": 517,
      "iá»ħn": 518,
      "Ġtháº¯c": 519,
      "Ã³m": 520,
      "ĠthÃ¢n": 521,
      "ĠÄĳÆ°a": 522,
      "Ġcá»¥": 523,
      "Ġsáº½": 524,
      "Ġá»Ł": 525,
      "Ġgáº§n": 526,
      "ĠnÃło": 527,
      "Ġ2": 528,
      "Æ°á»Ŀi": 529,
      "Ĺi": 530,
      "ĠthÃº": 531,
      "ĠÄĳáº£m": 532,
      "ĠhÃłi": 533,
      "Ġcáº£": 534,
      "ĠnhÃ³m": 535,
      "Ġbáº¡n": 536,
      "áº¿u": 537,
      "Ä©": 538,
      "ĠthÃŃch": 539,
      "Ã¹ng": 540,
      "áº¯t": 541,
      "Ġnháº¥t": 542,
      "Äĥn": 543,
      "ĠsÃ¡t": 544,
      "Ġto": 545,
      "ĠÄĳiá»ģu": 546,
      "áº±ng": 547,
      "Ġchu": 548,
      "ĠxuyÃªn": 549,
      "uyá»ĩn": 550,
      "Ġ\"": 551,
      "ĠhÃ¬nh": 552,
      "ĠgÃ¢y": 553,
      "ĠlÃºc": 554,
      "Ġqua": 555,
      "ĠngÆ°á»Ŀi": 556,
      "ĠcáºŃp": 557,
      "Ġhá»ĩ": 558,
      "Ġngo": 559,
      "Ã¢ng": 560,
      "Ġcuá»ĳi": 561,
      "ĠcÆ¡": 562,
      "Ġtrá»įng": 563,
      "Ġnghiá»ĩ": 564,
      "am": 565,
      "Ġtiá»ħn": 566,
      "Ġnáº¯m": 567,
      "ĠnÃ¢ng": 568,
      "ĠÄĳá»¡": 569,
      "ĠchÆ°Æ¡ng": 570,
      "ĠcÃ¢u": 571,
      "ĠnghÄ©": 572,
      "Ġ1": 573,
      "Ãły": 574,
      "Ã¡nh": 575,
      "ĠÄĳá»ķi": 576,
      "ĠcÃ¡": 577,
      "Ġrá»ĵi": 578,
      "ĠÃ¡p": 579,
      "ĠtÄĥng": 580,
      "ĠsÃ¢u": 581,
      "ĠchuyÃªn": 582,
      "á»¯a": 583,
      "ĵn": 584,
      "do": 585,
      "ĠchÃ¡n": 586,
      "Ġhoáº¡t": 587,
      "on": 588,
      "ĠÄĳáº§u": 589,
      "ĠchÃºng": 590,
      "ĠrÃłng": 591,
      "ĠngoÃłi": 592,
      "Ġtá»Ľi": 593,
      "Ġtho": 594,
      "ĠlÃ²ng": 595,
      "¯a": 596,
      "ĳng": 597,
      "Ġnhá»": 598,
      "Ġbáº±ng": 599,
      "Ġná»¯a": 600,
      "Ġngá»": 601,
      "Ġthay": 602,
      "ĠnháºŃt": 603,
      "Ġkáº¿t": 604,
      "Ġbáº¯t": 605,
      "ĠÄĳá»ĳ": 606,
      "Ġbáº£n": 607,
      "dot": 608,
      "Ġháº¿t": 609,
      "ĠphÃ¹": 610,
      "áº©": 611,
      "ĠmÃ¬nh": 612,
      "Ġcá»±c": 613,
      "Ġbá»ķ": 614,
      "ĠÄĳá»ĵng": 615,
      "įn": 616,
      "Ġmá»Ĺi": 617,
      "ĠÄĳá»ĳi": 618,
      "ĠtÆ°Æ¡ng": 619,
      "Ġtrung": 620,
      "ĠtÃ¬": 621,
      "ĠtÃ¬m": 622,
      "ĠtÃ¡c": 623,
      "ĠyÃªu": 624,
      "Ġchiáº¿u": 625,
      "áºŃy": 626,
      "Ġngá»§": 627,
      "Ġáº¡": 628,
      "ĠÄĳÃ´i": 629,
      "áº¥m": 630,
      "Ġkho": 631,
      "Ġtrang": 632,
      "Ġcáº§u": 633,
      "ĠÄĳá»ģu": 634,
      "Ġtrá»ħ": 635,
      "Ġ3": 636,
      "ĠtháºŃt": 637,
      "Ġhiá»ĩn": 638,
      "Ġnáº¿u": 639,
      "Ġlá»Ŀi": 640,
      "Ġá»©ng": 641,
      "Ġsá»Ńa": 642,
      "áº©n": 643,
      "áº·t": 644,
      "Ġtá»«ng": 645,
      "ĠváºŃy": 646,
      "ĠtÃŃch": 647,
      "ĠthÆ°Æ¡ng": 648,
      "Ġthá»ĳng": 649,
      "Ġtrá»£": 650,
      "ĠcÃ¡i": 651,
      "Ġthoáº£i": 652,
      "ub": 653,
      "Ġcháº¥m": 654,
      "Ġgiá»¯a": 655,
      "ĠmÃ¡i": 656,
      "Ġbuá»ĵn": 657,
      "ĠÃ´n": 658,
      "ĭch": 659,
      "Ġnghiá»ĩm": 660,
      "©i": 661,
      "Å©i": 662,
      "ĠgÅ©i": 663,
      "Ġmáº¡": 664,
      "ĠphÃ¢n": 665,
      "Ġchá»§": 666,
      "Ġváº«n": 667,
      "áºŃm": 668,
      "Ġtin": 669,
      "iá»ģ": 670,
      "ĠÃŃch": 671,
      "oo": 672,
      "Ġgá»": 673,
      "Ġchuáº©n": 674,
      "ĭp": 675,
      "Æ¡n": 676,
      "Ġtá»¥": 677,
      "Ġw": 678,
      "Ġthiáº¿u": 679,
      "Ġhá»Ĺ": 680,
      "Ġtra": 681,
      "Ġlá»±c": 682,
      "uble": 683,
      "Ġkiá»ĥm": 684,
      "ĠcháºŃm": 685,
      "Ġná»": 686,
      "Ġká»ĭp": 687,
      "Ġtu": 688,
      "Ġnhá»ı": 689,
      "«a": 690,
      "ĠÄĳá»įc": 691,
      "iá»ģn": 692,
      "ubledot": 693,
      "Ġkinh": 694,
      "Ġphá»": 695,
      "lon": 696,
      "įi": 697,
      "Ġrá»Ļ": 698,
      "Ġhoáº·c": 699,
      "Ġdoubledot": 700,
      "Ġcode": 701,
      "Ġ(": 702,
      "Ġ)": 703,
      "ĠhÃºt": 704,
      "ĠdÃ¹": 705,
      "ĠchÃŃ": 706,
      "Ġrá»Ļng": 707,
      "áº¯ng": 708,
      "Ġvá»«a": 709,
      "Ġcolon": 710,
      "Ġláº¯m": 711,
      "Ã¡ng": 712,
      "Ġchuyá»ĩn": 713,
      "Ġtráº£": 714,
      "Ġso": 715,
      "ĠÄĳá»ĭ": 716,
      "ĠthÃłnh": 717,
      "Ġtham": 718,
      "ĠÄĳa": 719,
      "Ġlo": 720,
      "ĠÄĳá»ĭnh": 721,
      "Ġtháº¿": 722,
      "ĠtoÃłn": 723,
      "ile": 724,
      "ĠcÃ¹ng": 725,
      "ĠphÃ¡t": 726,
      "áº·p": 727,
      "Ġmá»Ł": 728,
      "Ġlá»ĭch": 729,
      "Ġtuáº§n": 730,
      "ĠchÃº": 731,
      "Ġmá»įi": 732,
      "Ġláº§n": 733,
      "ĠláºŃp": 734,
      "Ġngá»¯": 735,
      "Ġchia": 736,
      "Ġtuy": 737,
      "Ġtáº¡i": 738,
      "ĠkÃ©": 739,
      "Ġmang": 740,
      "Ġcá»©": 741,
      "áº¯n": 742,
      "áº¯p": 743,
      "Ġxem": 744,
      "Ã²a": 745,
      "ĠhoÃłn": 746,
      "ĠchÃŃnh": 747,
      "Ġcáº£i": 748,
      "ĠÄĳÃ¡nh": 749,
      "ĠbÃ¹": 750,
      "ĠbÃły": 751,
      "ĠhÃ²a": 752,
      "Ġla": 753,
      "Ġgiao": 754,
      "Äĥm": 755,
      "Ġluyá»ĩn": 756,
      "Ġmuá»ĳ": 757,
      "Ġdáº¡ng": 758,
      "ĠgiÃ¡": 759,
      "Ġmuá»ĳn": 760,
      "te": 761,
      "ĠcÃ¡o": 762,
      "ĠkhÄĥn": 763,
      "Ġgiá»įng": 764,
      "Ġchung": 765,
      "ood": 766,
      "sm": 767,
      "ĠvÄĥn": 768,
      "ĠdÃłi": 769,
      "Ġphong": 770,
      "Ġmáº¡ng": 771,
      "ĠÆ¡n": 772,
      "Ġcá»ĳ": 773,
      "Ġsai": 774,
      "Ġkhiáº¿n": 775,
      "Ġchá»ĭ": 776,
      "Ġkháº£o": 777,
      "ea": 778,
      "Ġviáº¿t": 779,
      "ĠnhÃ¬": 780,
      "Ã©p": 781,
      "ĠnháºŃn": 782,
      "áº£ng": 783,
      "ĠngÃłnh": 784,
      "Ġtá»ķ": 785,
      "ĠnhÃłm": 786,
      "ĠnhÃ¬n": 787,
      "ĠÄĳang": 788,
      "Ġgáº·p": 789,
      "Ġnhau": 790,
      "Ġbá»Ļ": 791,
      "Ġmáº¥t": 792,
      "Ġmood": 793,
      "Ġtá»¥i": 794,
      "Ġmoodle": 795,
      "Ġf": 796,
      "Łng": 797,
      "Ġsáº¯p": 798,
      "Ġthá»©": 799,
      "Æ°á»Łng": 800,
      "Ã¡ch": 801,
      "ĠngÃły": 802,
      "smile": 803,
      "ar": 804,
      "Ġyáº¿u": 805,
      "eb": 806,
      "ic": 807,
      "ro": 808,
      "Ġmá»¥c": 809,
      "áº¹": 810,
      "Ġhiá»ģn": 811,
      "ĠbÃ¡": 812,
      "Ġngá»ĵi": 813,
      "á»Ļc": 814,
      "Ġbá»ı": 815,
      "Ġkhoa": 816,
      "ne": 817,
      "Ġdanh": 818,
      "ĠdÃ¹ng": 819,
      "ĠnhiÃªn": 820,
      "Ġhá»į": 821,
      "iÃªm": 822,
      "iÃªu": 823,
      "áº¿p": 824,
      "Ġchá»Ĺ": 825,
      "ĠxÃ¡c": 826,
      "Ġxáº¿p": 827,
      "á»ĳi": 828,
      "Ġlá»Ľn": 829,
      "Ġchá»©": 830,
      "áº³": 831,
      "ĠvÃłi": 832,
      "Ġsao": 833,
      "Ġminh": 834,
      "ĠnÄĥm": 835,
      "ĠnghiÃªm": 836,
      "uyá»ĩt": 837,
      "Ġháº¡n": 838,
      "ĠÄĳáº·c": 839,
      "ĠbÃªn": 840,
      "ĠkhÃŃ": 841,
      "Æ¡i": 842,
      "á»Ļn": 843,
      "Ġbá»įn": 844,
      "Ġnghá»ĭ": 845,
      "Ġchá»ĭu": 846,
      "Ġtuyá»ĩt": 847,
      "ĠcÆ°á»Ŀng": 848,
      "ĠcÃłng": 849,
      "Ãło": 850,
      "ĠÄĳáº·t": 851,
      "ĠhÆ°á»Ľc": 852,
      "Ġbáº£ng": 853,
      "ĠtoÃ¡n": 854,
      "Ġlab": 855,
      "ĠtÆ°": 856,
      "Ġtáº¥t": 857,
      "ĠváºŃn": 858,
      "ĠÄĳÃ¡o": 859,
      "Ġkiá»ĩn": 860,
      "ĠchÃºt": 861,
      "Ġsá»Ł": 862,
      "Ġná»Ļp": 863,
      "Ġsá»Ľ": 864,
      "Ġbiá»ĩt": 865,
      "ĠnÃ³ng": 866,
      "Ġsá»Ľm": 867,
      "Ġvi": 868,
      "Ġgiáº£m": 869,
      "ĠtrÃ¡nh": 870,
      "Ġvá»įng": 871,
      "ĠkÃ©m": 872,
      "ĠbÃ¡m": 873,
      "áº³ng": 874,
      "Ġláº¥y": 875,
      "Ġweb": 876,
      "Ġ4": 877,
      "ĠÃ¢m": 878,
      "Ġmá»ģ": 879,
      "Ġlá»Ĺi": 880,
      "Ġnghiá»ĩp": 881,
      "Ġmá»ģm": 882,
      "£i": 883,
      "ĠcÆ°Æ¡ng": 884,
      "ĠsÃ¡ng": 885,
      "Ġmáº·c": 886,
      "Ġtrao": 887,
      "á»Ľt": 888,
      "Ġxin": 889,
      "ĠcÅ©": 890,
      "line": 891,
      "Ġcuá»ĳn": 892,
      "Ġngáº¯n": 893,
      "Ġtá»¥c": 894,
      "Ġtrá»±c": 895,
      "iÃª": 896,
      "ĠÄĳÃ¢y": 897,
      "Ġgh": 898,
      "Ġdea": 899,
      "ĠlÃ¢u": 900,
      "ĠchÃ©p": 901,
      "Ġmáº·t": 902,
      "Ġhá»Ļ": 903,
      "ĠgiÃ¡c": 904,
      "Ġxong": 905,
      "Ġná»ķi": 906,
      "dline": 907,
      "en": 908,
      "Ġbao": 909,
      "Ġngay": 910,
      "ĠrÃ¨": 911,
      "Ġvá»ĭ": 912,
      "Ġdeadline": 913,
      "Ġ-": 914,
      "Ġ5": 915,
      "ĠcáºŃn": 916,
      "Ġnáº·": 917,
      "Ġhá»įa": 918,
      "Ġhá»Ļi": 919,
      "Ġnáº·ng": 920,
      "Ġai": 921,
      "Ġtiáº¿n": 922,
      "ĠtÃ´i": 923,
      "ĠvÃ´": 924,
      "Ġsem": 925,
      "Ġmá»Ŀ": 926,
      "Ġnghá»ĩ": 927,
      "ĠluáºŃn": 928,
      "Ã©t": 929,
      "iÃªng": 930,
      "Ġviá»ĩt": 931,
      "Ġlan": 932,
      "Ġsung": 933,
      "áº§m": 934,
      "áº£n": 935,
      "Ġquy": 936,
      "Ġchá»©c": 937,
      "Ġsá»©c": 938,
      "áº·n": 939,
      "inar": 940,
      "Ġphá»¥c": 941,
      "Ġcolonsmile": 942,
      "Ġcá»©u": 943,
      "Ġseminar": 944,
      "Ġnhá»Ľ": 945,
      "Ġláº¡": 946,
      "ĠtrÃ²": 947,
      "áº£o": 948,
      "Ġgiá»ıi": 949,
      "Ġká»ĥ": 950,
      "Ġmá»©c": 951,
      "ur": 952,
      "Ġnháº¯c": 953,
      "áº¥u": 954,
      "ĠriÃªng": 955,
      "Ġquyáº¿t": 956,
      "ĠnghiÃªn": 957,
      "áº«u": 958,
      "ĠváºŃt": 959,
      "Ġháº§u": 960,
      "ĠdÃłng": 961,
      "ĠsÆ¡": 962,
      "ĠsÃ´i": 963,
      "Ġmáº¥y": 964,
      "Ġmáº«u": 965,
      "iá»ĩm": 966,
      "áº£nh": 967,
      "ĠphÃºt": 968,
      "Ġvá»Ŀi": 969,
      "ac": 970,
      "er": 971,
      "Ľi": 972,
      "Ġsáº»": 973,
      "Ġkháº¯c": 974,
      "Ġman": 975,
      "Ġquáº¡t": 976,
      "Ġ20": 977,
      "se": 978,
      "«ng": 979,
      "Ġáº£nh": 980,
      "Ńi": 981,
      "Ã¡i": 982,
      "Ġmic": 983,
      "iáº¿m": 984,
      "ĠxÃ©t": 985,
      "ĠthuáºŃt": 986,
      "Ġmicro": 987,
      "ĠtÃºc": 988,
      "ĠtÆ°á»£ng": 989,
      "Ġhy": 990,
      "Ġhai": 991,
      "ĠÄĳÃło": 992,
      "Ġcháº¿": 993,
      "ĠbáºŃn": 994,
      "Ġmu": 995,
      "iá»ĥn": 996,
      "Ġgiá»Ľi": 997,
      "ĠkhÃ³a": 998,
      "ĠrÃ¨n": 999,
      "si": 1000,
      "Ġcháº¯c": 1001,
      "ail": 1002,
      "Ġgá»įn": 1003,
      "Ġsong": 1004,
      "Ġbáº¥t": 1005,
      "Ġkhoáº£ng": 1006,
      "ing": 1007,
      "µn": 1008,
      "ıng": 1009,
      "áºµn": 1010,
      "ĠtiÃªu": 1011,
      "ĠngÃ´n": 1012,
      "Ġgia": 1013,
      "Ġá»ķ": 1014,
      "Ġsá»ĳng": 1015,
      "Ġgá»Ńi": 1016,
      "Ġtá»¥y": 1017,
      "Ġmuá»Ļn": 1018,
      "it": 1019,
      "Ġu": 1020,
      "Łi": 1021,
      "Ńa": 1022,
      "ĠthÃ´i": 1023,
      "ĠÄĳáº¡i": 1024,
      "Ġsáºµn": 1025,
      "Ġnghá»ģ": 1026,
      "Ġtá»ĳn": 1027,
      "ame": 1028,
      "Ġloa": 1029,
      "al": 1030,
      "Ãµ": 1031,
      "Ġtáº£i": 1032,
      "Ġcu": 1033,
      "Ġthiá»ĩu": 1034,
      "Ġtháº£o": 1035,
      "ĠÄĳiá»ĩn": 1036,
      "ĠdÃłnh": 1037,
      "Ġdiá»ħn": 1038,
      "Ġnhiá»ĩm": 1039,
      "ĠsÃ¡ch": 1040,
      "Ġbiá»ĥu": 1041,
      "ĠkhÃ´": 1042,
      "Ġhá»ĵ": 1043,
      "ĠtrÃ¡ch": 1044,
      "ĠphÃŃ": 1045,
      "Ġquáº£n": 1046,
      "¯u": 1047,
      "Ã¨": 1048,
      "ĥn": 1049,
      "Ġvá»¯ng": 1050,
      "ĠthÃºc": 1051,
      "Ġhi": 1052,
      "ĠhÆ°": 1053,
      "Ġháº¥p": 1054,
      "ĠÄĳÆ¡n": 1055,
      "ĠgÃ³": 1056,
      "áº¡y": 1057,
      "áº¡ng": 1058,
      "Ġbá»ĳ": 1059,
      "Ġbá»Ľt": 1060,
      "Ġkhá»": 1061,
      "ĠmÆ¡": 1062,
      "Ġhá»¯u": 1063,
      "Ġcá»Ļ": 1064,
      "Ġchá»¯": 1065,
      "Ġ10": 1066,
      "áº¹p": 1067,
      "Ġ?": 1068,
      "Ġtinh": 1069,
      "ĠdÆ°": 1070,
      "ĠchÆ¡i": 1071,
      "ĠtrÃ¹ng": 1072,
      "Ġtriá»ĥn": 1073,
      "Ġcour": 1074,
      "Ġwebsi": 1075,
      "Ãµi": 1076,
      "Ġcourse": 1077,
      "Ġwebsite": 1078,
      "ĠthÃ¡i": 1079,
      "ĠhÃ´": 1080,
      "ĠhÆ°á»Łng": 1081,
      "ĠÄĳÄĥng": 1082,
      "ĠnháºŃp": 1083,
      "Ġláº¯ng": 1084,
      "Ġcháº¡y": 1085,
      "Ġmail": 1086,
      "Ġgiáº£n": 1087,
      "Ġtráº¡ng": 1088,
      "Ġnay": 1089,
      "Ã³t": 1090,
      "ĠÄĳá»©ng": 1091,
      "Ġchá»¯a": 1092,
      "Ġdot": 1093,
      "Ġtá»ķng": 1094,
      "Ġghi": 1095,
      "Ġcá»Ļng": 1096,
      "Ġcáº¥u": 1097,
      "Ġgáº¯ng": 1098,
      "Ġgame": 1099,
      "ĠsÃ³t": 1100,
      "Ġgiáº¥c": 1101,
      "Ġdá»¯": 1102,
      "ĠxÃºc": 1103,
      "Ġchá»īnh": 1104,
      "Ġ30": 1105,
      "ĠkÃ©o": 1106,
      "Ġfr": 1107,
      "uáº¥t": 1108,
      "Ġo": 1109,
      "Ġváº¯ng": 1110,
      "Ġtháº³ng": 1111,
      "ĠÄĳÆ°á»Ŀng": 1112,
      "ĠÄĳáº¹p": 1113,
      "ĠdÃµi": 1114,
      "Ġkiá»ĥu": 1115,
      "ĠlÃ´i": 1116,
      "áº¡nh": 1117,
      "áº¡ch": 1118,
      "ĠbÃłn": 1119,
      "ĠmÃ´": 1120,
      "Ġchá»įn": 1121,
      "Ġgiá»ĳng": 1122,
      "Ġxa": 1123,
      "Ġtrá»Ł": 1124,
      "Ġvá»¥": 1125,
      "ĠnghÄ©a": 1126,
      "Ġup": 1127,
      "Ġcuá»Ļc": 1128,
      "ĠhÃ´m": 1129,
      "su": 1130,
      "ĠÄĳÃ¢u": 1131,
      "Ġduy": 1132,
      "Ġdem": 1133,
      "Ġkáº¿": 1134,
      "Ġkáº½": 1135,
      "ĠnhÃ¢n": 1136,
      "Ġláº«n": 1137,
      "ĠsÃłi": 1138,
      "ĠsÃłng": 1139,
      "Ġcháº³ng": 1140,
      "Ġhá»ıng": 1141,
      "ĠphÃº": 1142,
      "Ġcá»©ng": 1143,
      "Ġcá»§ng": 1144,
      "ĠquÃ¡t": 1145,
      "Ġbá»¥": 1146,
      "Ġtrá»«": 1147,
      "Ġvisu": 1148,
      "ĠgÃ³p": 1149,
      "ĠdÆ°á»Ľi": 1150,
      "Ġdemo": 1151,
      "Ġvisual": 1152,
      "ion": 1153,
      "tion": 1154,
      "ĠtÆ°á»Łng": 1155,
      "Ġthanh": 1156,
      "ĠÄĳÃŃch": 1157,
      "Ġkiáº¿m": 1158,
      "Æ°u": 1159,
      "Ġná»ģn": 1160,
      "ĠnÃªu": 1161,
      "Ã³ng": 1162,
      "Ġdá»±": 1163,
      "Ġdá»ĭch": 1164,
      "Æ°á»¡": 1165,
      "Ġbuá»Ļc": 1166,
      "uá»ĳng": 1167,
      "ec": 1168,
      "Ġ7": 1169,
      "Ġtháº§n": 1170,
      "Ġnhu": 1171,
      "Ġlinh": 1172,
      "ĠbÃ¬nh": 1173,
      "ĠbÆ°á»Ľc": 1174,
      "Ġkhan": 1175,
      "Ġráº±ng": 1176,
      "deo": 1177,
      "Ġdoanh": 1178,
      "Ġvideo": 1179,
      "Ġláº¡c": 1180,
      "30": 1181,
      "to": 1182,
      "ĠcÄĥn": 1183,
      "Ġcáº¡nh": 1184,
      "Ġsang": 1185,
      "ĠtrÃºc": 1186,
      "ĠnguyÃªn": 1187,
      "ĠquÃ½": 1188,
      "Ã²i": 1189,
      "Ġxá»": 1190,
      "action": 1191,
      "Ġfraction": 1192,
      "Æ°á»¡ng": 1193,
      "ĠcÃłi": 1194,
      "ĠÄĳÃ´ng": 1195,
      "ĠdÃ²ng": 1196,
      "ĠlÆ°á»¡ng": 1197,
      "Ġhá»ģ": 1198,
      "Ġtráº»": 1199,
      "Ġthá»¥": 1200,
      "ĠÄĳá»«ng": 1201,
      "Ġrá»Ľt": 1202,
      "Ġxuá»ĳng": 1203,
      "Ġlá»ĩ": 1204,
      "uyá»ĥn": 1205,
      "Ġmáº¡ch": 1206,
      "Ġná»ķ": 1207,
      "Ġá»ķn": 1208,
      "ad": 1209,
      "¥y": 1210,
      "Ġtáº£ng": 1211,
      "Ġcáº·n": 1212,
      "ĠÄĳem": 1213,
      "Ãªnh": 1214,
      "Ġnháº¹": 1215,
      "ĠlÆ°u": 1216,
      "Ġgiáº¥y": 1217,
      "Ġpro": 1218,
      "ĠquÃªn": 1219,
      "Ġquen": 1220,
      "Ġtá»ĳc": 1221,
      "Ġá»ĵn": 1222,
      "Ã£y": 1223,
      "Ġngoáº¡i": 1224,
      "Ġnhá»Ŀ": 1225,
      "Ġcourses": 1226,
      "Ġbá»¥i": 1227,
      "12": 1228,
      "±m": 1229,
      "Ġi": 1230,
      "áº±m": 1231,
      "ĠhÃ³": 1232,
      "ĠÄĳÃ¡ng": 1233,
      "Ġlai": 1234,
      "Ġláº½": 1235,
      "Ġst": 1236,
      "ĠchÃºc": 1237,
      "Ġchuyá»ĥn": 1238,
      "ĠkhÃŃch": 1239,
      "Ġnáº£n": 1240,
      "Ġpháº£n": 1241,
      "uyáº¿n": 1242,
      "Ġtá»ĩ": 1243,
      "Ġsá»£": 1244,
      "Ġxuáº¥t": 1245,
      "Ġ15": 1246,
      "ĠcÃ¡m": 1247,
      "Ġwi": 1248,
      "Ġloáº¡i": 1249,
      "Ġlap": 1250,
      "lo": 1251,
      "ĠthÆ°a": 1252,
      "ĠÄĳo": 1253,
      "ĠkÃ½": 1254,
      "ĠchÃ©": 1255,
      "ĠnÆ¡i": 1256,
      "ĠÄĳá»Ŀi": 1257,
      "Ġrá»ĳi": 1258,
      "Ġdá»±ng": 1259,
      "Ġcá»Łi": 1260,
      "Ġchá»Ŀ": 1261,
      "Ġtá»ĳi": 1262,
      "Æ°á»Ľt": 1263,
      "ĠxÃ¢y": 1264,
      "ĠtÃŃn": 1265,
      "Ġsoáº¡n": 1266,
      "ter": 1267,
      "Ġfile": 1268,
      "Ã¨m": 1269,
      "Ġxá»Ń": 1270,
      "10": 1271,
      "king": 1272,
      "or": 1273,
      "pea": 1274,
      "ĩt": 1275,
      "ĠcÆ°á»Ŀi": 1276,
      "Ġdáº·n": 1277,
      "ĠkÃ¨m": 1278,
      "Ġnháº§m": 1279,
      "Ġnháº±m": 1280,
      "Ġláº·p": 1281,
      "ĠlÆ°á»Ľt": 1282,
      "Ġspea": 1283,
      "ĠchÃ³ng": 1284,
      "Ġkhe": 1285,
      "Ġtrai": 1286,
      "Ġná»ĳi": 1287,
      "Ġrá»": 1288,
      "ĠrÃºt": 1289,
      "Ġtá»ī": 1290,
      "Ġcon": 1291,
      "ĠkhÃ¡ch": 1292,
      "Ä©nh": 1293,
      "Ġmáº¡nh": 1294,
      "Ġná»Ńa": 1295,
      "Ġcolons": 1296,
      "top": 1297,
      "Ġlaptop": 1298,
      "Ġspeaking": 1299,
      "13": 1300,
      "15": 1301,
      "di": 1302,
      "es": 1303,
      "uá»": 1304,
      "ver": 1305,
      "Ġ8": 1306,
      "Ġj": 1307,
      "ĠÃ¢n": 1308,
      "Ġin": 1309,
      "Ġta": 1310,
      "ĠtÃªn": 1311,
      "Ġtiá»ĩn": 1312,
      "Ġthao": 1313,
      "ĠnhiÃªu": 1314,
      "Ġlá»ĳ": 1315,
      "Ġlá»ģ": 1316,
      "Ġsuy": 1317,
      "Ġban": 1318,
      "Ġkhuyáº¿n": 1319,
      "ĠÄĳá»£i": 1320,
      "áº£y": 1321,
      "Ġtrá»Ŀi": 1322,
      "Ġmá»ĩt": 1323,
      "Ġlá»£i": 1324,
      "Ġthuá»Ļc": 1325,
      "ĠÄĳÃ³ng": 1326,
      "ĠkhoÃ¡": 1327,
      "Ġgá»£i": 1328,
      "Ġphá»¥": 1329,
      "Ġphá»©c": 1330,
      "Ġ200": 1331,
      "Ġtrá»«u": 1332,
      "Ġcolonsad": 1333,
      "19": 1334,
      "at": 1335,
      "fi": 1336,
      "ve": 1337,
      "±a": 1338,
      "ĠtiÃªn": 1339,
      "Ġtiá»ģn": 1340,
      "ĠcÃ¢n": 1341,
      "Ġcáº¯m": 1342,
      "ĠthÃ¡ng": 1343,
      "ĠhÃłng": 1344,
      "ĠkÃªnh": 1345,
      "ĠsÆ°": 1346,
      "áº¡m": 1347,
      "Ġchiá»ģu": 1348,
      "ĠchÄĥm": 1349,
      "Ġkhu": 1350,
      "Ġtráº·c": 1351,
      "ĠnÆ°á»Ľc": 1352,
      "Ġthá»Ń": 1353,
      "Ġxáº£y": 1354,
      "Ġtrá»¥c": 1355,
      "ĠÄĳá»Ļt": 1356,
      "Ġhoáº¡ch": 1357,
      "Ġvá»±ng": 1358,
      "Ġcolonsmilesmile": 1359,
      "ĠhÃ³a": 1360,
      "Ġstu": 1361,
      "Ġwifi": 1362,
      "ĠÄĳoáº¡n": 1363,
      "dio": 1364,
      "23": 1365,
      "24": 1366,
      "25": 1367,
      "27": 1368,
      "gle": 1369,
      "gic": 1370,
      "ning": 1371,
      "os": 1372,
      "Ġ9": 1373,
      "ıe": 1374,
      "Ġtáº£": 1375,
      "Ġtay": 1376,
      "Ġtáº¯c": 1377,
      "Ġtáº§m": 1378,
      "ĠcÄĥng": 1379,
      "ĠhÄĥng": 1380,
      "Ġgoo": 1381,
      "Ġláº¯p": 1382,
      "ĠlÄ©nh": 1383,
      "Ġbiá»ĩn": 1384,
      "Ġhá»ĵi": 1385,
      "ĠtrÃŃ": 1386,
      "ĠtrÆ°a": 1387,
      "Ã³c": 1388,
      "Ġdá»ĵi": 1389,
      "Ġpháº¥n": 1390,
      "ĠphÃ©p": 1391,
      "Ġcá»Ńa": 1392,
      "Ġchá»©ng": 1393,
      "ĠxÃ£": 1394,
      "ĠmÃłn": 1395,
      "ĠhoÃł": 1396,
      "Ġtáº¡p": 1397,
      "ĠkhÃ¡i": 1398,
      "Ġcoi": 1399,
      "Ġthoáº¡i": 1400,
      "Ġnhá»Ł": 1401,
      "dotv": 1402,
      "Ġphá»ķ": 1403,
      "Ġlogic": 1404,
      "net": 1405,
      "Ġ50": 1406,
      "Ġkhá»ıe": 1407,
      "Ġok": 1408,
      "Ġstudio": 1409,
      "Ġgoogle": 1410,
      "17": 1411,
      "20": 1412,
      "av": 1413,
      "har": 1414,
      "py": 1415,
      "us": 1416,
      "uÃ´ng": 1417,
      "Ġty": 1418,
      "ĠtÃ¢n": 1419,
      "ĠtÃ³m": 1420,
      "Ġda": 1421,
      "Ġdi": 1422,
      "Ġkit": 1423,
      "Ġli": 1424,
      "áº¡c": 1425,
      "Ġcháº£": 1426,
      "ĠbÃ³": 1427,
      "Ġkháº¯t": 1428,
      "ĠmÃ´i": 1429,
      "ĠtrÆ°á»Łng": 1430,
      "Ġpháº¡m": 1431,
      "Ġnguá»": 1432,
      "Ġtrá»ĭ": 1433,
      "Ġmá»ī": 1434,
      "Ã£ng": 1435,
      "Ġcopy": 1436,
      "ook": 1437,
      "Ġwin": 1438,
      "Ġcolonc": 1439,
      "ect": 1440,
      "Ġnguá»ĵn": 1441,
      "16": 1442,
      "29": 1443,
      "as": 1444,
      "tem": 1445,
      "Ġ6": 1446,
      "Ġe": 1447,
      "īnh": 1448,
      "ĠthÆ°": 1449,
      "ĠthÃŃ": 1450,
      "Ġhuy": 1451,
      "ĠhÃ£y": 1452,
      "ĠÄĳÃłn": 1453,
      "ĠÄĳÃ²i": 1454,
      "ĠkiÃªn": 1455,
      "ĠkÃŃch": 1456,
      "ĠkÃªu": 1457,
      "Ġnhá»Ļn": 1458,
      "Ġlá»Ļn": 1459,
      "Ġsáº¯c": 1460,
      "Ġche": 1461,
      "ĠchÃª": 1462,
      "Ġbiáº¿n": 1463,
      "Æ°ng": 1464,
      "ĠmÃ³c": 1465,
      "Ġtráº£i": 1466,
      "Ġtráº¯c": 1467,
      "áºŃu": 1468,
      "Ġxung": 1469,
      "Ġxen": 1470,
      "Ġbá»©c": 1471,
      "Ġbá»Łi": 1472,
      "Ġmá»Ŀi": 1473,
      "Ġmá»ıi": 1474,
      "ĠthuáºŃn": 1475,
      "uá»ĳt": 1476,
      "ĠnhÃłng": 1477,
      "Ġvá»±c": 1478,
      "ontem": 1479,
      "Ġthoáº£ng": 1480,
      "Ġgá»įi": 1481,
      "ebook": 1482,
      "ĠbÃ¡u": 1483,
      "ternet": 1484,
      "Ġinternet": 1485,
      "ĠkhuÃ´n": 1486,
      "Ġcoloncontem": 1487,
      "Ġcoloncontemn": 1488,
      "14": 1489,
      "26": 1490,
      "28": 1491,
      "im": 1492,
      "ject": 1493,
      "ode": 1494,
      "ut": 1495,
      "ĠtÃ²i": 1496,
      "Ġviá»ĩn": 1497,
      "Ġvdotv": 1498,
      "Ġtháº¥p": 1499,
      "Ġha": 1500,
      "ĠÄĥn": 1501,
      "Ġgáº¯t": 1502,
      "Ġgáº¯n": 1503,
      "ĠdÃ£y": 1504,
      "Ġliá»ģn": 1505,
      "ĠlÃ£ng": 1506,
      "Ã¡m": 1507,
      "Ġsi": 1508,
      "ĠsiÃªu": 1509,
      "ĠsuÃ´ng": 1510,
      "Ġsuá»ĳt": 1511,
      "Ġchiáº¿m": 1512,
      "Ġbá»¯a": 1513,
      "Ġkhai": 1514,
      "Ġkhá»ĳi": 1515,
      "Ġmay": 1516,
      "Ġtranh": 1517,
      "Ġtrau": 1518,
      "Ġná»¯": 1519,
      "Ġthá»īnh": 1520,
      "ĠtáºŃm": 1521,
      "Ġpos": 1522,
      "ÃŃu": 1523,
      "á»ĳc": 1524,
      "Ġtá»©c": 1525,
      "Ġxinh": 1526,
      "ĠxÃŃu": 1527,
      "iá»ģm": 1528,
      "Ġwec": 1529,
      "Ġfac": 1530,
      "Ġgháº¿": 1531,
      "ĠphÃŃa": 1532,
      "Ġdá»±a": 1533,
      "Ġproject": 1534,
      "ĠchÃ©o": 1535,
      "Ġrá»Ŀi": 1536,
      "Ġwecode": 1537,
      "Ġfacebook": 1538,
      "18": 1539,
      "ia": 1540,
      "ig": 1541,
      "ql": 1542,
      "ste": 1543,
      "ĠÃ¡nh": 1544,
      "Ġit": 1545,
      "ĠtÃ¹": 1546,
      "ĠvÃ²ng": 1547,
      "ĠthÃ¹": 1548,
      "ĠgÃ²": 1549,
      "ĠdÆ°á»Ŀng": 1550,
      "ĠkÃŃ": 1551,
      "Ġser": 1552,
      "Ġsuáº¥t": 1553,
      "Ġsáº¡ch": 1554,
      "Ġsql": 1555,
      "ĠchÃ¢n": 1556,
      "Ġcháº¯n": 1557,
      "ĠmÃª": 1558,
      "Ġmáº»": 1559,
      "ĠmÃ£": 1560,
      "ĠtrÃ¬": 1561,
      "Ġtrá»ĳ": 1562,
      "Ġtráº§m": 1563,
      "Ġná»ģ": 1564,
      "Ġthá»§": 1565,
      "Ġcá»Ń": 1566,
      "Æ°á»£t": 1567,
      "and": 1568,
      "Ġtá»Ń": 1569,
      "Ġlá»±a": 1570,
      "Ġchuá»Ļt": 1571,
      "áº©y": 1572,
      "Ġphá»ıng": 1573,
      "Ġcolonlo": 1574,
      "Ġhá»įp": 1575,
      "ent": 1576,
      "ĠrÃ¨m": 1577,
      "Ġlá»ĩch": 1578,
      "ĠchÃ©m": 1579,
      "Ġjav": 1580,
      "Ġdaa": 1581,
      "Ġtrá»ĳng": 1582,
      "Ġcolonlove": 1583,
      "Ġjava": 1584,
      "11": 1585,
      "ate": 1586,
      "ce": 1587,
      "du": 1588,
      "eic": 1589,
      "ml": 1590,
      "ri": 1591,
      "res": 1592,
      "©a": 1593,
      "ĠÃło": 1594,
      "ĵng": 1595,
      "Ġte": 1596,
      "Ġcs": 1597,
      "ĠcÃºp": 1598,
      "Ġváº½": 1599,
      "Ġver": 1600,
      "Ġtháº¥t": 1601,
      "ĠtháºŃm": 1602,
      "Ġht": 1603,
      "Ġháº±ng": 1604,
      "Ġham": 1605,
      "Ġháº£o": 1606,
      "Ãłm": 1607,
      "ĠÄĳam": 1608,
      "ĠÄĳáº·n": 1609,
      "ĠÄĳáºŃu": 1610,
      "ĠÄĳáº©y": 1611,
      "Ġdáº§n": 1612,
      "Ġdiá»ĩn": 1613,
      "ĠdáºŃy": 1614,
      "Ġkia": 1615,
      "ĠnhÃºng": 1616,
      "Ġnháº¥n": 1617,
      "Ġlao": 1618,
      "Ġsay": 1619,
      "ĠsÃºc": 1620,
      "Ġsáº£n": 1621,
      "ĠcháºŃt": 1622,
      "ĠbÃ³ng": 1623,
      "Ġkhung": 1624,
      "ĠkhuyÃªn": 1625,
      "ĠmÃ²": 1626,
      "Ġniá»ĩm": 1627,
      "Ġniá»ģm": 1628,
      "ĠphÃ³": 1629,
      "Ġpháº©": 1630,
      "ĠngÆ°á»£c": 1631,
      "Ġquay": 1632,
      "ĠgiÃ³": 1633,
      "á»ĳn": 1634,
      "ĠlÃłnh": 1635,
      "Ã¹a": 1636,
      "ĠmÃły": 1637,
      "ĠrÃ£i": 1638,
      "iá»ħu": 1639,
      "Ġtoeic": 1640,
      "Ġ12": 1641,
      "one": 1642,
      "Ġsour": 1643,
      "ĠkhÃŃa": 1644,
      "ĠghÃ©p": 1645,
      "Ġquyá»ģn": 1646,
      "Ġkhá»ķ": 1647,
      "Ġ100": 1648,
      "ork": 1649,
      "Ġliste": 1650,
      "Ġpost": 1651,
      "ĠkÃŃnh": 1652,
      "Ġpháº©m": 1653,
      "Ġsource": 1654,
      "Ġlistening": 1655,
      "big": 1656,
      "ke": 1657,
      "mar": 1658,
      "pl": 1659,
      "ua": 1660,
      "un": 1661,
      "ws": 1662,
      "work": 1663,
      "Ġa": 1664,
      "Ġáº¥y": 1665,
      "Ġáº¥n": 1666,
      "Ġam": 1667,
      "Ġoo": 1668,
      "ĠÆ¡i": 1669,
      "Ġand": 1670,
      "Ġtáº¯t": 1671,
      "ĠthiÃªn": 1672,
      "ĠthÃ¢m": 1673,
      "Ġthang": 1674,
      "Ġháº³": 1675,
      "ĠhÃ¡i": 1676,
      "Ġhiáº¿m": 1677,
      "Ġhiá»ħu": 1678,
      "Ãłu": 1679,
      "ĠÄĳÆ°Æ¡ng": 1680,
      "ĠÄĳÃ¹a": 1681,
      "ĠÄĳua": 1682,
      "Ġgood": 1683,
      "ĠdÃ¢y": 1684,
      "ĠdÃ¡m": 1685,
      "Ġkáº¹": 1686,
      "Ġnha": 1687,
      "Ġnháº¡t": 1688,
      "Ġlung": 1689,
      "ĠsÄ©": 1690,
      "ĠsÃ¡nh": 1691,
      "áº¡o": 1692,
      "ĠchÃªnh": 1693,
      "Ġba": 1694,
      "ĠbiÃªn": 1695,
      "Ġbáº·": 1696,
      "ĠbÃ¢y": 1697,
      "Ġbá»ĳi": 1698,
      "Ġmáº¿n": 1699,
      "Ġmáº¯n": 1700,
      "ĠtrÃłn": 1701,
      "Ã³i": 1702,
      "Ġthá»«a": 1703,
      "ĠÄĳá»įng": 1704,
      "ĠÄĳá»©a": 1705,
      "Ġráº¡c": 1706,
      "Ġdá»«ng": 1707,
      "Ġpat": 1708,
      "Ġpha": 1709,
      "ĠphiÃªn": 1710,
      "Ġpháº¡t": 1711,
      "Ġphim": 1712,
      "Ġquá»ĳc": 1713,
      "ĠgiÃ¡n": 1714,
      "Ġchá»«ng": 1715,
      "Æ°á»Ľng": 1716,
      "Ġsá»ķ": 1717,
      "Ġxe": 1718,
      "Ġxáº¥u": 1719,
      "Ġdá»¥c": 1720,
      "uit": 1721,
      "ĠnÃłn": 1722,
      "ĠmÃ¡t": 1723,
      "Ġlá»ħ": 1724,
      "Ġhoáº¡": 1725,
      "dows": 1726,
      "dotdot": 1727,
      "Ġná»±c": 1728,
      "Ġtuá»": 1729,
      "ĠtuÃ¢n": 1730,
      "Ġcolonbig": 1731,
      "ĠloÃ¡t": 1732,
      "ĠgiÃ¡m": 1733,
      "Ġláº¡nh": 1734,
      "Ġ2010": 1735,
      "Ġkhá»Łi": 1736,
      "Ġdotdotdot": 1737,
      "Ġtraining": 1738,
      "Ġwindows": 1739,
      "Ġsil": 1740,
      "ĠtÃ¹y": 1741,
      "Ġserver": 1742,
      "Ġoop": 1743,
      "Ġháº³n": 1744,
      "Ġbáº·m": 1745,
      "Ġcolonbigsmile": 1746,
      "00": 1747,
      "21": 1748,
      "45": 1749,
      "bit": 1750,
      "co": 1751,
      "id": 1752,
      "lsmile": 1753,
      "mail": 1754,
      "odu": 1755,
      "pri": 1756,
      "ru": 1757,
      "ram": 1758,
      "rac": 1759,
      "rus": 1760,
      "£t": 1761,
      "¥t": 1762,
      "§y": 1763,
      "§ng": 1764,
      "Ġ%": 1765,
      "ĠÃł": 1766,
      "ĠÃªm": 1767,
      "ĠÆ°á»Ľc": 1768,
      "ıa": 1769,
      "ķng": 1770,
      "ĠtÃ´n": 1771,
      "ĠtÃ¡n": 1772,
      "Ġca": 1773,
      "Ġcli": 1774,
      "Ġcáº©n": 1775,
      "Ġvai": 1776,
      "ĠvÆ°á»£t": 1777,
      "Ġvá»ĳn": 1778,
      "ĠthÃ´": 1779,
      "ĠthÃ¡c": 1780,
      "ĠtháºŃn": 1781,
      "Ġtháº¯ng": 1782,
      "Ġtháº¯n": 1783,
      "ĠthÆ°á»Łng": 1784,
      "ĠthÃ¡ch": 1785,
      "Ġhu": 1786,
      "Ġháº¡nh": 1787,
      "ĠÄĳÃłnh": 1788,
      "ĠÄĳÆ°Æ¡": 1789,
      "ĠÄĳuá»ĳ": 1790,
      "ĠÄĳau": 1791,
      "ĠÄĳiá»ĥn": 1792,
      "ĠÄĳáº¡o": 1793,
      "Ġgá»Ļ": 1794,
      "Ġgáº¥p": 1795,
      "ĠdÃ²": 1796,
      "ĠdÃłn": 1797,
      "ĠkÃª": 1798,
      "Ġnháº«n": 1799,
      "Ġnháº£m": 1800,
      "ĠlÆ¡": 1801,
      "ĠlÆ°Æ¡ng": 1802,
      "Ġlau": 1803,
      "ĠlÆ°á»Ŀi": 1804,
      "Ġlá»ĳi": 1805,
      "Ġcháº¿t": 1806,
      "ĠchÄĥng": 1807,
      "Ġcháº¥p": 1808,
      "Ġchang": 1809,
      "Ġcháº·t": 1810,
      "ĠbÃ©": 1811,
      "ĠbÃºt": 1812,
      "Ġkhá»Ľ": 1813,
      "ĠkhÃºc": 1814,
      "Ġmáº£ng": 1815,
      "Ġmodu": 1816,
      "Ġhá»Ŀi": 1817,
      "Ġhá»¥t": 1818,
      "Ġhá»§y": 1819,
      "Ġnam": 1820,
      "ĠÄĳá»£t": 1821,
      "Ġro": 1822,
      "Ġdá»ĵn": 1823,
      "Ġphp": 1824,
      "Ġphá»ĳi": 1825,
      "ĠngÃ¡n": 1826,
      "Ġquanh": 1827,
      "ĠgiÆ¡": 1828,
      "ĠgiÃłnh": 1829,
      "Ġchá»Ńi": 1830,
      "Ġgiá»¯": 1831,
      "ĠquÃ¡n": 1832,
      "Ġtá»·": 1833,
      "ĠxÃłi": 1834,
      "Ġtruyá»": 1835,
      "Ġmá»±c": 1836,
      "Ġlá»Ńa": 1837,
      "Ġlá»ĵng": 1838,
      "Ġthuáº§n": 1839,
      "ĠhoÃ¡": 1840,
      "ĠhoÃłi": 1841,
      "Ġhoang": 1842,
      "Ġhá»£t": 1843,
      "Ġvá»ĩ": 1844,
      "Ġvá»Ł": 1845,
      "ĠyÃªn": 1846,
      "Ġ11": 1847,
      "Ġ13": 1848,
      "Ġngá»¡": 1849,
      "Ġngá»«ng": 1850,
      "dote": 1851,
      "Ġcolonsm": 1852,
      "Ġfor": 1853,
      "are": 1854,
      "roid": 1855,
      "Ġvirus": 1856,
      "Ġ45": 1857,
      "urpri": 1858,
      "allsmile": 1859,
      "Ã¨n": 1860,
      "Ã¨o": 1861,
      "Ġbá»¥ng": 1862,
      "ĠhÃ³c": 1863,
      "Ġwires": 1864,
      "est": 1865,
      "Ġjs": 1866,
      "Ġ2008": 1867,
      "hark": 1868,
      "ĠthÆ°c": 1869,
      "Ġteam": 1870,
      "Ġvery": 1871,
      "Ġhtml": 1872,
      "plus": 1873,
      "Ġandroid": 1874,
      "Ġkáº¹t": 1875,
      "Ġtuá»ķi": 1876,
      "Ġclip": 1877,
      "ĠÄĳÆ°Æ¡c": 1878,
      "ĠÄĳuá»ĳi": 1879,
      "Ġgá»Ļp": 1880,
      "Ġkhá»Ľp": 1881,
      "Ġmodule": 1882,
      "Ġcolonsmallsmile": 1883,
      "urprise": 1884,
      "Ġwireshark": 1885,
      "22": 1886,
      "55": 1887,
      "59": 1888,
      "83": 1889,
      "ab": 1890,
      "ed": 1891,
      "ft": 1892,
      "hi": 1893,
      "ho": 1894,
      "hone": 1895,
      "ihi": 1896,
      "ment": 1897,
      "out": 1898,
      "pe": 1899,
      "phone": 1900,
      "re": 1901,
      "surprise": 1902,
      "tu": 1903,
      "¥p": 1904,
      "§i": 1905,
      "Ġ0": 1906,
      "ĠÃ´": 1907,
      "ĠuyÃªn": 1908,
      "Ġon": 1909,
      "ĠÃ©p": 1910,
      "ĠÆ°u": 1911,
      "Ġav": 1912,
      "Ġuit": 1913,
      "ĩn": 1914,
      "ım": 1915,
      "ĵm": 1916,
      "á»Ĺi": 1917,
      "Ġtan": 1918,
      "Ġtung": 1919,
      "Ġtui": 1920,
      "ĠtÆ°Æ¡": 1921,
      "Ġtai": 1922,
      "Ġtest": 1923,
      "ĠcÃ¢y": 1924,
      "Ġcáº¯t": 1925,
      "Ġcáº§m": 1926,
      "nhihi": 1927,
      "ĠvÃª": 1928,
      "Ġváº¹": 1929,
      "ĠthÃły": 1930,
      "ĠthÃ³i": 1931,
      "Ġhiá»ģu": 1932,
      "ĠhÃ´i": 1933,
      "ĠhÃłn": 1934,
      "ĠhiÃªu": 1935,
      "ĠhÃło": 1936,
      "Ġháº¹p": 1937,
      "ĠhÃłm": 1938,
      "ĠÄĳÃ¡": 1939,
      "ĠÄĳáº¯n": 1940,
      "ĠÄĳáº¥u": 1941,
      "ĠÄĳuá»": 1942,
      "ĠÄĳÃ¡m": 1943,
      "Ġgram": 1944,
      "Ġde": 1945,
      "ĠdÆ¡": 1946,
      "ĠdÃŃ": 1947,
      "Ġday": 1948,
      "ĠdÃ¢n": 1949,
      "Ġnháº¯m": 1950,
      "Ġnhá»ĵi": 1951,
      "Ġnhiá»ħ": 1952,
      "Ġlá»Ļ": 1953,
      "ĠlÃ¢m": 1954,
      "ĠlÆ°á»£c": 1955,
      "Ġlin": 1956,
      "ĠlÃµi": 1957,
      "ĠlÆ°á»£t": 1958,
      "Ġsub": 1959,
      "ĠsiÃªng": 1960,
      "Ġshar": 1961,
      "Ġsho": 1962,
      "áº¡p": 1963,
      "Ġchat": 1964,
      "Ġbáº§u": 1965,
      "Ġbai": 1966,
      "Ġbáº©n": 1967,
      "Ġbáº¡ch": 1968,
      "ĠkhÃ¢u": 1969,
      "Ġmiá»ĩ": 1970,
      "ĠmÃ´ng": 1971,
      "ĠmÆ°á»£": 1972,
      "ĠmáºŃt": 1973,
      "Ġmiá»ģn": 1974,
      "Ġmáº¹": 1975,
      "Ġtran": 1976,
      "ĠtrÃ²n": 1977,
      "ĠtrÃło": 1978,
      "Ġno": 1979,
      "ĠnÃ£": 1980,
      "Ġnáº¯ng": 1981,
      "Ġnáº¡p": 1982,
      "Ġthá»ıa": 1983,
      "ĠÄĳá»©c": 1984,
      "ĠráºŃp": 1985,
      "ĠvÃłng": 1986,
      "Ġdá»Ł": 1987,
      "Ġdá»įn": 1988,
      "Ġdá»ım": 1989,
      "Ã¢p": 1990,
      "ĠphÃºc": 1991,
      "ĠpháºŃn": 1992,
      "ĠphÃłn": 1993,
      "Ġphiá»ģn": 1994,
      "Ġphone": 1995,
      "Ġngá»Ļt": 1996,
      "Ġnguyá»ĩn": 1997,
      "ĠquÃł": 1998,
      "Ġcá»¡": 1999,
      "Ġcá»ķ": 2000,
      "Ġemail": 2001,
      "Ġtiáº¿c": 2002,
      "ĠnghÃłnh": 2003,
      "ĠnghÃ¨o": 2004,
      "Ġchá»ķ": 2005,
      "Ġchá»¥p": 2006,
      "Ġxá»Ļn": 2007,
      "ĠxÆ°ng": 2008,
      "áº«m": 2009,
      "ĠÄĳá»Ļc": 2010,
      "Ã¹i": 2011,
      "Ġlá»¡": 2012,
      "Ġlá»įc": 2013,
      "Ġthua": 2014,
      "ĠmÃłng": 2015,
      "Ġhoc": 2016,
      "Ġá»·": 2017,
      "Ã£i": 2018,
      "Ġcolo": 2019,
      "Ġyout": 2020,
      "Ġ25": 2021,
      "Ġtop": 2022,
      "double": 2023,
      "ĠthoÃ¡ng": 2024,
      "ube": 2025,
      "Ġgá»ĵm": 2026,
      "Ġná»Ĺi": 2027,
      "Ġphá»§": 2028,
      "Ġcolondouble": 2029,
      "ĠsoÃ¡t": 2030,
      "Ġcá»ĳt": 2031,
      "ack": 2032,
      "Ġ2012": 2033,
      "amework": 2034,
      "ĠphÃŃm": 2035,
      "Ġkhá»ıi": 2036,
      "Ġframework": 2037,
      "Ġout": 2038,
      "Ġorac": 2039,
      "Ġxá»©ng": 2040,
      "Ġis": 2041,
      "log": 2042,
      "ĠÄĳoÃ¡n": 2043,
      "ord": 2044,
      "Ġrá»ħ": 2045,
      "Ġ80": 2046,
      "Ġ2005": 2047,
      "Ġ2009": 2048,
      "Ġ90": 2049,
      "dotvn": 2050,
      "harp": 2051,
      "Ġlike": 2052,
      "Ġcsharp": 2053,
      "Ġpatin": 2054,
      "Ġsilde": 2055,
      "rum": 2056,
      "Ġtruyá»ĩn": 2057,
      "ĠtÆ°Æ¡i": 2058,
      "ĠÄĳuá»ķi": 2059,
      "Ġgrammar": 2060,
      "Ġnhiá»ħm": 2061,
      "Ġshare": 2062,
      "Ġshow": 2063,
      "Ġmiá»ĩng": 2064,
      "ĠmÆ°á»£n": 2065,
      "ĠnÃ£o": 2066,
      "Ġcolonhihi": 2067,
      "Ġyoutube": 2068,
      "Ġcolondoublesurprise": 2069,
      "Ġoracle": 2070,
      "314": 2071,
      "48": 2072,
      "80": 2073,
      "81": 2074,
      "=)": 2075,
      "ag": 2076,
      "ax": 2077,
      "ation": 2078,
      "cl": 2079,
      "crum": 2080,
      "da": 2081,
      "dl": 2082,
      "date": 2083,
      "el": 2084,
      "eed": 2085,
      "fc": 2086,
      "ford": 2087,
      "gh": 2088,
      "gn": 2089,
      "ger": 2090,
      "is": 2091,
      "late": 2092,
      "lab": 2093,
      "me": 2094,
      "mw": 2095,
      "mit": 2096,
      "nit": 2097,
      "ox": 2098,
      "oto": 2099,
      "put": 2100,
      "rect": 2101,
      "so": 2102,
      "slate": 2103,
      "ts": 2104,
      "tte": 2105,
      "tphone": 2106,
      "ux": 2107,
      "uter": 2108,
      "vle": 2109,
      "wn": 2110,
      "xx": 2111,
      "£p": 2112,
      "©t": 2113,
      "âĢ": 2114,
      "Ġ'": 2115,
      "Ġ>": 2116,
      "Ġz": 2117,
      "ĠÆ°a": 2118,
      "Ġáº¯t": 2119,
      "Ġáº©n": 2120,
      "Ġub": 2121,
      "Ġáº£o": 2122,
      "ĠÃ¡i": 2123,
      "Ġas": 2124,
      "Ġ=)": 2125,
      "ĠâĢ": 2126,
      "ħn": 2127,
      "Ġtáº§": 2128,
      "Ġtiá»ĥu": 2129,
      "ĠtÃ½": 2130,
      "ĠtÆ°á»Ŀng": 2131,
      "ĠtÃºng": 2132,
      "Ġtáº¥n": 2133,
      "Ġtam": 2134,
      "ĠtÃ¡nh": 2135,
      "Ġtáº¥m": 2136,
      "ĠtÃ²a": 2137,
      "ĠtÄ©nh": 2138,
      "Ġtiá»ģm": 2139,
      "ĠtÆ°á»Ľng": 2140,
      "ĠtÃ¢p": 2141,
      "ĠcÃº": 2142,
      "Ġcam": 2143,
      "ĠcÆ°á»¡": 2144,
      "Ġcas": 2145,
      "Ġcplus": 2146,
      "Ġváº§y": 2147,
      "Ġvinh": 2148,
      "ĠvÃ¢ng": 2149,
      "Ġváº·t": 2150,
      "Ġviá»ģn": 2151,
      "ĠvuÃ´ng": 2152,
      "ĠvÆ°á»Ľng": 2153,
      "Ġthiá»ĩt": 2154,
      "Ġthiá»ĥu": 2155,
      "Ġtháº»": 2156,
      "Ġtháº¥m": 2157,
      "ĠthÄĥm": 2158,
      "ĠthÆ¡i": 2159,
      "Ġtháº¥u": 2160,
      "ĠthÃ²i": 2161,
      "ĠhÃ¬": 2162,
      "Ġháº£": 2163,
      "Ġhung": 2164,
      "Ġháº¯t": 2165,
      "Ġhuá»ĳng": 2166,
      "Ġhuyáº¿n": 2167,
      "ĠháºŃu": 2168,
      "ĠÄĳÃªn": 2169,
      "ĠÄĳáº¿": 2170,
      "ĠÄĳan": 2171,
      "ĠÄĳiá»ĩu": 2172,
      "ĠÄĳáº»": 2173,
      "ĠÄĳen": 2174,
      "ĠÄĳáº£o": 2175,
      "ĠÄĳÃ¨n": 2176,
      "Ãªng": 2177,
      "ĠgÃ¡p": 2178,
      "Ġganh": 2179,
      "ĠgÃłng": 2180,
      "ĠgÃ¡nh": 2181,
      "Ġgmail": 2182,
      "Ġdáº¿": 2183,
      "Ġdáº¯t": 2184,
      "ĠdÃły": 2185,
      "ĠdÃ¡ng": 2186,
      "Ġdeb": 2187,
      "Ġduyá»ĩt": 2188,
      "ĠdÃło": 2189,
      "Ġdáº¥u": 2190,
      "Ġkiá»ĥn": 2191,
      "ĠnhÃ¢": 2192,
      "ĠnhÃ¡c": 2193,
      "Ġnhiá»ĥu": 2194,
      "ĠnhÃ£": 2195,
      "Ġnhuyá»": 2196,
      "ĠnhiÃª": 2197,
      "ĠnhÃ©t": 2198,
      "Ġnháº¡c": 2199,
      "ĠlÃºng": 2200,
      "Ġlang": 2201,
      "Ġláº§m": 2202,
      "ĠlÆ°ng": 2203,
      "Ġsá»¯a": 2204,
      "Ġsmar": 2205,
      "Ġscrum": 2206,
      "Ġchá»Ľ": 2207,
      "Ġchiáº¿n": 2208,
      "ĠchÃło": 2209,
      "ĠchÃ¨n": 2210,
      "ĠbáºŃ": 2211,
      "Ġbiáº¿": 2212,
      "ĠbÃ¡c": 2213,
      "ĠbÃŃ": 2214,
      "Ġbá»ģ": 2215,
      "Ġbáº¡i": 2216,
      "ĠbáºŃt": 2217,
      "Ġbáº¥m": 2218,
      "ĠbÃ¨": 2219,
      "Ġbáº¡c": 2220,
      "Ġbas": 2221,
      "Ġkhuyáº¿t": 2222,
      "Ġkhiáº¿u": 2223,
      "Ġkhen": 2224,
      "Ġmáº¡i": 2225,
      "Ġmai": 2226,
      "Ġmiá»ħn": 2227,
      "Ġmáº¯t": 2228,
      "Ġmá»ĳi": 2229,
      "ĠgiáºŃ": 2230,
      "Ġgiáº£nh": 2231,
      "Ġhá»ķng": 2232,
      "Ġtráº§n": 2233,
      "Ġtreo": 2234,
      "ĠtrÆ°ng": 2235,
      "Ġtrig": 2236,
      "ĠnÆ°Æ¡ng": 2237,
      "Ġnáº»": 2238,
      "Ġname": 2239,
      "Ġnáº±m": 2240,
      "Ã³a": 2241,
      "Ġthá»±": 2242,
      "Ġthá»ĭ": 2243,
      "Ġthá»Ł": 2244,
      "iá»ĩp": 2245,
      "ĠÄĳá»Ĺ": 2246,
      "ĠÄĳá»Ľi": 2247,
      "Ġdáº¡t": 2248,
      "Ġre": 2249,
      "Ġráº»": 2250,
      "Ġdá»ĥ": 2251,
      "Ġdá»Ŀi": 2252,
      "Ġpl": 2253,
      "Ġpas": 2254,
      "ĠphÃª": 2255,
      "Ġphá»ĳ": 2256,
      "Ġphiáº¿u": 2257,
      "Ġphoto": 2258,
      "Ġngáº¡i": 2259,
      "ĠngáºŃp": 2260,
      "Ġngáº«m": 2261,
      "ĠquÄĥng": 2262,
      "ĠquÃ¢n": 2263,
      "ĠquÃ©t": 2264,
      "ĠchoÃ¡ng": 2265,
      "Ġgiang": 2266,
      "ĠgiÃ¢y": 2267,
      "ĠgiÃłu": 2268,
      "á»ĳt": 2269,
      "Ġcá»Ŀ": 2270,
      "á»Ļi": 2271,
      "ement": 2272,
      "Ġchá»¥c": 2273,
      "Ġgiá»Ŀi": 2274,
      "Ġxu": 2275,
      "Ġxáº¡": 2276,
      "ĠxÆ°a": 2277,
      "Ġxml": 2278,
      "ĠxÃłm": 2279,
      "ĠxÃ³a": 2280,
      "Ġbá»¡": 2281,
      "Ġbá»ĵi": 2282,
      "Ġbá»¥c": 2283,
      "Ġtrá»įn": 2284,
      "Ġtrá»«ng": 2285,
      "ĠÄĳá»Ļi": 2286,
      "Ġmá»ĵ": 2287,
      "ĠmÃ¡u": 2288,
      "ĠÄĳá»ĵm": 2289,
      "ĠmÃłu": 2290,
      "Ġhoa": 2291,
      "ligh": 2292,
      "Ġslile": 2293,
      "Ġlum": 2294,
      "Ġdown": 2295,
      "ĠÄĳÃ³i": 2296,
      "Ġ23": 2297,
      "ĠthÃºy": 2298,
      "Ġcáº£nh": 2299,
      "Ġchuá»Ĺi": 2300,
      "Ġngon": 2301,
      "Ġ19": 2302,
      "doubledot": 2303,
      "Ġnhá»ĭp": 2304,
      "Ġnhá»±a": 2305,
      "Ġngá»Ŀ": 2306,
      "Ġngá»±a": 2307,
      "Ġngá»£p": 2308,
      "dotuit": 2309,
      "Ġbá»ķng": 2310,
      "Ġ32": 2311,
      "Ġgá»§i": 2312,
      "Ġná»£": 2313,
      "Ġná»Ĺ": 2314,
      "Ġná»Ł": 2315,
      "Ġrá»Ļn": 2316,
      "Ġsoft": 2317,
      "Ġloáº¡t": 2318,
      "Ġlove": 2319,
      "Ġtuyáº¿n": 2320,
      "tep": 2321,
      "Ġfi": 2322,
      "Ġfeed": 2323,
      "Ġ40": 2324,
      "ĠghÃª": 2325,
      "Ġ2013": 2326,
      "sette": 2327,
      "Ġmua": 2328,
      "sive": 2329,
      "sign": 2330,
      "Ġuá»": 2331,
      "Ġcute": 2332,
      "ĠgÃ³c": 2333,
      "ĠgÃ³i": 2334,
      "Ġkhá»§ng": 2335,
      "Ġcá»Ļt": 2336,
      "Ġdotnet": 2337,
      "Ġover": 2338,
      "Ġupdate": 2339,
      "Ġ75": 2340,
      "Ġnhuáº§n": 2341,
      "Ġlá»ĩnh": 2342,
      "Ġnháº¹n": 2343,
      "Ġprog": 2344,
      "Ġprolog": 2345,
      "Ġim": 2346,
      "Ġios": 2347,
      "Ġida": 2348,
      "Ġiel": 2349,
      "Ġstand": 2350,
      "load": 2351,
      "tern": 2352,
      "Ġtá»īnh": 2353,
      "133": 2354,
      "verligh": 2355,
      "Ġ2003": 2356,
      "Ġcolonsadco": 2357,
      "Ġdirect": 2358,
      "Ġ60": 2359,
      "Ġ64": 2360,
      "Ġeng": 2361,
      "ĠtÃ¹m": 2362,
      "Ġservle": 2363,
      "ĠmÃ£i": 2364,
      "dudotvn": 2365,
      "Ġteen": 2366,
      "untu": 2367,
      "Ġag": 2368,
      "Ġpattern": 2369,
      "Ġsilverligh": 2370,
      "ĠbÃ©o": 2371,
      "Ġrouter": 2372,
      "dotedudotvn": 2373,
      "ĠÃ´m": 2374,
      "Ġonline": 2375,
      "Ġváº¹n": 2376,
      "Ġlinux": 2377,
      "Ġsubmit": 2378,
      "Ġtranslate": 2379,
      "Ġtopic": 2380,
      "mware": 2381,
      "Ġubuntu": 2382,
      "Ġtáº§ng": 2383,
      "ĠcÆ°á»¡i": 2384,
      "Ġcassette": 2385,
      "Ġcplusplus": 2386,
      "Ġdebate": 2387,
      "ĠnhÃ¢t": 2388,
      "Ġnhuyá»ħn": 2389,
      "ĠnhiÃªt": 2390,
      "Ġsmartphone": 2391,
      "ĠbáºŃc": 2392,
      "Ġbiáº¿ng": 2393,
      "Ġbasic": 2394,
      "Ġtrigger": 2395,
      "Ġnáº»o": 2396,
      "Ġpaste": 2397,
      "dotuitdotedudotvn": 2398,
      "Ġielts": 2399,
      "Ġstandford": 2400,
      "Ġcolonsadcolon": 2401,
      "Ġdirectx": 2402,
      "Ġservlet": 2403,
      "Ġsilverlight": 2404,
      "'s": 2405,
      "130": 2406,
      "112": 2407,
      "115": 2408,
      "119": 2409,
      "117": 2410,
      "116": 2411,
      "114": 2412,
      "230": 2413,
      "212": 2414,
      "213": 2415,
      "219": 2416,
      "224": 2417,
      "225": 2418,
      "227": 2419,
      "220": 2420,
      "229": 2421,
      "214": 2422,
      "226": 2423,
      "218": 2424,
      "211": 2425,
      "221": 2426,
      "35": 2427,
      "36": 2428,
      "37": 2429,
      "312": 2430,
      "310": 2431,
      "313": 2432,
      "315": 2433,
      "319": 2434,
      "323": 2435,
      "324": 2436,
      "325": 2437,
      "327": 2438,
      "317": 2439,
      "316": 2440,
      "326": 2441,
      "318": 2442,
      "311": 2443,
      "321": 2444,
      "43": 2445,
      "46": 2446,
      "47": 2447,
      "51": 2448,
      "52": 2449,
      "53": 2450,
      "54": 2451,
      "60": 2452,
      "61": 2453,
      "62": 2454,
      "63": 2455,
      "66": 2456,
      "67": 2457,
      "68": 2458,
      "69": 2459,
      "70": 2460,
      "71": 2461,
      "72": 2462,
      "73": 2463,
      "74": 2464,
      "75": 2465,
      "78": 2466,
      "79": 2467,
      "82": 2468,
      "85": 2469,
      "86": 2470,
      "87": 2471,
      "88": 2472,
      "89": 2473,
      "92": 2474,
      "93": 2475,
      "94": 2476,
      "97": 2477,
      "98": 2478,
      "99": 2479,
      ";)": 2480,
      "ap": 2481,
      "ase": 2482,
      "be": 2483,
      "bl": 2484,
      "by": 2485,
      "ble": 2486,
      "bin": 2487,
      "bpe": 2488,
      "back": 2489,
      "bcl": 2490,
      "box": 2491,
      "base": 2492,
      "ct": 2493,
      "cke": 2494,
      "df": 2495,
      "dg": 2496,
      "dy": 2497,
      "dsm": 2498,
      "ding": 2499,
      "ee": 2500,
      "ep": 2501,
      "et": 2502,
      "ew": 2503,
      "ever": 2504,
      "fd": 2505,
      "fun": 2506,
      "go": 2507,
      "hm": 2508,
      "hile": 2509,
      "hing": 2510,
      "hdl": 2511,
      "ike": 2512,
      "iew": 2513,
      "ky": 2514,
      "lg": 2515,
      "ll": 2516,
      "las": 2517,
      "mf": 2518,
      "mment": 2519,
      "np": 2520,
      "ny": 2521,
      "nsive": 2522,
      "nike": 2523,
      "om": 2524,
      "oay": 2525,
      "olon": 2526,
      "ote": 2527,
      "ous": 2528,
      "ois": 2529,
      "ohm": 2530,
      "pp": 2531,
      "pt": 2532,
      "pv": 2533,
      "pbox": 2534,
      "qu": 2535,
      "qui": 2536,
      "rt": 2537,
      "ray": 2538,
      "ran": 2539,
      "rch": 2540,
      "rit": 2541,
      "rnit": 2542,
      "rement": 2543,
      "rmware": 2544,
      "sh": 2545,
      "sp": 2546,
      "sy": 2547,
      "sem": 2548,
      "ser": 2549,
      "sag": 2550,
      "tf": 2551,
      "tic": 2552,
      "tro": 2553,
      "thing": 2554,
      "um": 2555,
      "up": 2556,
      "ull": 2557,
      "vd": 2558,
      "ven": 2559,
      "view": 2560,
      "wea": 2561,
      "wit": 2562,
      "xy": 2563,
      "xte": 2564,
      "yle": 2565,
      "ything": 2566,
      "ze": 2567,
      "¡n": 2568,
      "¡y": 2569,
      "¥ng": 2570,
      "§a": 2571,
      "Äĳ": 2572,
      "Å©ng": 2573,
      "Ġ&": 2574,
      "ĠÆ°": 2575,
      "ĠÆ¡": 2576,
      "Ġuy": 2577,
      "ĠÃ²": 2578,
      "ĠÃ¡o": 2579,
      "Ġan": 2580,
      "ĠÃ¹": 2581,
      "ĠÃ¢u": 2582,
      "ĠÃ´i": 2583,
      "Ġáº¥m": 2584,
      "Ġea": 2585,
      "Ġic": 2586,
      "Ġer": 2587,
      "Ġal": 2588,
      "Ġuá»ĳng": 2589,
      "Ġuyá»ĥn": 2590,
      "Ġad": 2591,
      "ĠÆ°á»Ľt": 2592,
      "Ġat": 2593,
      "ĠÃ³c": 2594,
      "ĠÆ°ng": 2595,
      "Ġebook": 2596,
      "Ġá»ĳc": 2597,
      "ĠÃłm": 2598,
      "Ġare": 2599,
      "Ġ;)": 2600,
      "īÃªn": 2601,
      "įa": 2602,
      "Ĺng": 2603,
      "á»¹": 2604,
      "á»ĵng": 2605,
      "ĠtÃł": 2606,
      "ĠtÃª": 2607,
      "ĠtÃ¡": 2608,
      "ĠtÃ´": 2609,
      "Ġtá»Ľ": 2610,
      "ĠtÃ²": 2611,
      "Ġtáº¿t": 2612,
      "Ġtáº¡t": 2613,
      "Ġtao": 2614,
      "Ġtáº»": 2615,
      "ĠtÃ©": 2616,
      "ĠtÃªu": 2617,
      "Ġtea": 2618,
      "Ġtáº³ng": 2619,
      "ĠtiÃª": 2620,
      "Ġtiá»ĩm": 2621,
      "Ġtuyá»ĥn": 2622,
      "Ġtim": 2623,
      "Ġtá»Ļi": 2624,
      "Ġtmf": 2625,
      "ĠcÃ¡p": 2626,
      "Ġcau": 2627,
      "Ġcáº¡n": 2628,
      "ĠcÃły": 2629,
      "Ġcáº©": 2630,
      "Ġcáº¥m": 2631,
      "Ġcáº·p": 2632,
      "Ġcdio": 2633,
      "ĠcáºŃu": 2634,
      "ĠcÃłu": 2635,
      "Ġcrac": 2636,
      "Ġcare": 2637,
      "ĠcÃ¹i": 2638,
      "ĠcÃ£i": 2639,
      "Ġclas": 2640,
      "Ġcnp": 2641,
      "Ġcrt": 2642,
      "Ġva": 2643,
      "Ġvu": 2644,
      "ĠvÃªn": 2645,
      "ĠvÃ¡": 2646,
      "Ġváº¡": 2647,
      "Ġváº§": 2648,
      "ĠvÆ¡": 2649,
      "Ġváº§n": 2650,
      "Ġviáº¿n": 2651,
      "ĠvÃ²": 2652,
      "ĠvÆ°Æ¡": 2653,
      "Ġvang": 2654,
      "ĠvÃ£": 2655,
      "Ġviá»ħn": 2656,
      "Ġvon": 2657,
      "ĠvÆ¡i": 2658,
      "Ġváº·n": 2659,
      "ĠvÃµ": 2660,
      "Ġvec": 2661,
      "ĠvÃ³c": 2662,
      "ĠvÃ³i": 2663,
      "Ġvmware": 2664,
      "Ġvhdl": 2665,
      "Ġvote": 2666,
      "Ġthe": 2667,
      "ĠthÃł": 2668,
      "ĠthÃª": 2669,
      "ĠthÆ¡": 2670,
      "Ġtháº£": 2671,
      "Ġthem": 2672,
      "Ġthan": 2673,
      "Ġtháº£m": 2674,
      "ĠthuyÃªn": 2675,
      "ĠthÆ°á»Ľc": 2676,
      "ĠthÃ¢y": 2677,
      "ĠtháºŃy": 2678,
      "ĠthÃ¨m": 2679,
      "Ġtháº©y": 2680,
      "Ġthpt": 2681,
      "Ġhe": 2682,
      "Ġháº¡": 2683,
      "ĠhiÃªn": 2684,
      "ĠhÃº": 2685,
      "ĠhÃ¢m": 2686,
      "Ġhan": 2687,
      "Ġháº¡t": 2688,
      "ĠhÃ²ng": 2689,
      "Ġhao": 2690,
      "ĠhÃ¹": 2691,
      "Ġhiá»ĥm": 2692,
      "ĠhÃ¡t": 2693,
      "Ġhiáº¿u": 2694,
      "ĠhÃ³m": 2695,
      "ĠhÃ¹ng": 2696,
      "Ġhub": 2697,
      "Ġhea": 2698,
      "Ġháº¹": 2699,
      "Ġháº§m": 2700,
      "Ġhiá»ĥn": 2701,
      "ĠhÃ¨": 2702,
      "Ġháº¡ng": 2703,
      "ĠhÃ£i": 2704,
      "Ġhack": 2705,
      "Ġhdl": 2706,
      "Ġhiá»ĩp": 2707,
      "ĠÄĳÃł": 2708,
      "ĠÄĳÃª": 2709,
      "ĠÄĳÃ¬nh": 2710,
      "ĠÄĳÃłi": 2711,
      "ĠÄĳáº¥t": 2712,
      "ĠÄĳÆ¡": 2713,
      "ĠÄĳiá»ĥu": 2714,
      "ĠÄĳÃŃ": 2715,
      "ĠÄĳÃ¢m": 2716,
      "ĠÄĳÃ²": 2717,
      "ĠÄĳao": 2718,
      "ĠÄĳáºŃt": 2719,
      "ĠÄĳáº¥y": 2720,
      "ĠÄĳÄ©": 2721,
      "ĠÄĳáº¯t": 2722,
      "ĠÄĳáº±ng": 2723,
      "ĠÄĳáº¯ng": 2724,
      "ĠÄĳáº·p": 2725,
      "ĠÄĳáº¯p": 2726,
      "ĠÄĳáº³ng": 2727,
      "ĠÄĳÃ¨": 2728,
      "ĠÄĳáº¡ng": 2729,
      "ĠÄĳÄ©nh": 2730,
      "ĠÄĳáº¡m": 2731,
      "ĠÄĳáº¡c": 2732,
      "ĠÄĳÃłu": 2733,
      "ĠÄĳáº«m": 2734,
      "ĠÄĳbcl": 2735,
      "Ġgb": 2736,
      "Ġgt": 2737,
      "ĠgÃ¡c": 2738,
      "Ġgay": 2739,
      "Ġgáº«n": 2740,
      "ĠgÃ¡n": 2741,
      "Ġgao": 2742,
      "ĠgÆ°á»£ng": 2743,
      "Ġgro": 2744,
      "ĠgÃ¡i": 2745,
      "Ġgáº¡y": 2746,
      "Ġgáº¡ch": 2747,
      "Ġgá»ĳc": 2748,
      "Ġgáº¡o": 2749,
      "Ġgom": 2750,
      "Ġdu": 2751,
      "Ġdáº§y": 2752,
      "ĠdÃ´ng": 2753,
      "Ġdáº£": 2754,
      "ĠdÆ°á»£c": 2755,
      "Ġdan": 2756,
      "ĠdÃ¡n": 2757,
      "ĠdÃºng": 2758,
      "ĠduyÃªn": 2759,
      "ĠdÃ£": 2760,
      "Ġdáº½": 2761,
      "Ġdro": 2762,
      "Ġdáº¹p": 2763,
      "ĠdÆ°á»¡ng": 2764,
      "Ġdri": 2765,
      "Ġdiá»ħu": 2766,
      "Ġdre": 2767,
      "ĠdÃ£i": 2768,
      "Ġdbpe": 2769,
      "Ġdfd": 2770,
      "Ġdvd": 2771,
      "ĠdÅ©ng": 2772,
      "Ġkm": 2773,
      "Ġko": 2774,
      "Ġkay": 2775,
      "Ġkiá»ħn": 2776,
      "ĠkiÃªm": 2777,
      "Ġkiá»ĩm": 2778,
      "Ġkiá»ĩp": 2779,
      "Ġnho": 2780,
      "ĠnhÃ¡": 2781,
      "ĠnhÃ³": 2782,
      "ĠnhÃŃ": 2783,
      "Ġnhan": 2784,
      "Ġnhai": 2785,
      "Ġnháº½": 2786,
      "Ġnhiáº¿u": 2787,
      "ĠnhÄĥn": 2788,
      "Ġnháº±ng": 2789,
      "Ġnháº·t": 2790,
      "Ġnháº¯n": 2791,
      "Ġnháº£nh": 2792,
      "Ġnháº¡y": 2793,
      "ĠnhÃ³i": 2794,
      "ĠlÃª": 2795,
      "ĠlÃ´ng": 2796,
      "Ġliá»ĩt": 2797,
      "Ġliá»ģu": 2798,
      "ĠlÃŃ": 2799,
      "Ġláº¯c": 2800,
      "Ġláº»": 2801,
      "ĠluyÃªn": 2802,
      "ĠlÃ£": 2803,
      "Ġleo": 2804,
      "ĠláºŃn": 2805,
      "ĠlÃ¡t": 2806,
      "ĠlÆ°á»Ľc": 2807,
      "Ġláº¥n": 2808,
      "Ġláº·t": 2809,
      "Ġláº£ng": 2810,
      "Ġláº¹": 2811,
      "ĠliÃªu": 2812,
      "ĠlÃµ": 2813,
      "ĠlÃ¨o": 2814,
      "ĠlÃ¢p": 2815,
      "Ġsu": 2816,
      "ĠsÃ´": 2817,
      "ĠsÃ¡o": 2818,
      "Ġseo": 2819,
      "ĠsÃłn": 2820,
      "Ġsea": 2821,
      "ĠsÆ°u": 2822,
      "Ġsto": 2823,
      "Ġsat": 2824,
      "ĠsÆ°á»Ľng": 2825,
      "Ġsrum": 2826,
      "Ġstep": 2827,
      "Ġsever": 2828,
      "Ġsky": 2829,
      "Ġswit": 2830,
      "Ġcha": 2831,
      "ĠchÃ¬": 2832,
      "Ġchay": 2833,
      "Ġchui": 2834,
      "ĠchÆ°á»Ŀng": 2835,
      "Ġcháº¥y": 2836,
      "ĠcháºŃp": 2837,
      "Ġcháº¥n": 2838,
      "Ġchai": 2839,
      "ĠchÃłn": 2840,
      "Ġcháº¯t": 2841,
      "Ġcháº¯p": 2842,
      "Ġchá»ĳi": 2843,
      "Ġcháº·n": 2844,
      "Ġcháºµn": 2845,
      "ĠchÃ³t": 2846,
      "Ġchec": 2847,
      "Ġchuyáº¿n": 2848,
      "Ġcháº£y": 2849,
      "Ġcháº¡m": 2850,
      "Ġchuá»ĳt": 2851,
      "Ġchá»ĳn": 2852,
      "ĠchÃ¹i": 2853,
      "Ġchá»ĳt": 2854,
      "Ġchá»Ļi": 2855,
      "Ġbi": 2856,
      "ĠbÃª": 2857,
      "ĠbÃº": 2858,
      "Ġbay": 2859,
      "Ġbáº¯c": 2860,
      "ĠbÃ¡n": 2861,
      "Ġbáº»": 2862,
      "Ġbáº¥y": 2863,
      "ĠbÃ´i": 2864,
      "ĠbÄĥn": 2865,
      "ĠbÃ¢ng": 2866,
      "Ġbáº¯ng": 2867,
      "ĠbÄĥm": 2868,
      "ĠbÆ¡i": 2869,
      "ĠbÃło": 2870,
      "Ġbos": 2871,
      "Ġbook": 2872,
      "ĠbÆ°ng": 2873,
      "Ġbia": 2874,
      "Ġbri": 2875,
      "ĠbÃłu": 2876,
      "Ġbest": 2877,
      "Ġbox": 2878,
      "Ġbohm": 2879,
      "Ġkhinh": 2880,
      "ĠkhÃ¢m": 2881,
      "Ġkháº©n": 2882,
      "Ġkháº¯n": 2883,
      "Ġkháº³ng": 2884,
      "Ġma": 2885,
      "ĠmÃ³": 2886,
      "Ġmá»Ľ": 2887,
      "ĠmÃłi": 2888,
      "Ġmiá»ĩt": 2889,
      "ĠmÃ¡c": 2890,
      "Ġmá»Ļ": 2891,
      "ĠmÆ°a": 2892,
      "Ġmáº«n": 2893,
      "ĠmÄĥng": 2894,
      "Ġmáº£i": 2895,
      "ĠmÃ¹": 2896,
      "ĠmÃ²n": 2897,
      "ĠmÃ¢u": 2898,
      "ĠmáºŃp": 2899,
      "ĠmÃ¢y": 2900,
      "Ġmáº½": 2901,
      "Ġmin": 2902,
      "Ġmáº¯ng": 2903,
      "Ġmur": 2904,
      "Ġmáº¥u": 2905,
      "Ġmes": 2906,
      "Ġmat": 2907,
      "ĠmÃ¹a": 2908,
      "Ġmax": 2909,
      "Ġmfc": 2910,
      "Ġmis": 2911,
      "Ġmá»ĳt": 2912,
      "Ġgiáº¡y": 2913,
      "Ġgiáº£o": 2914,
      "Ã¬n": 2915,
      "Ġhá»ĳ": 2916,
      "Ġhá»ķ": 2917,
      "Ġhá»Ł": 2918,
      "Ġhá»ķi": 2919,
      "Ġhá»įng": 2920,
      "Ġhá»ĵn": 2921,
      "Ġhá»īnh": 2922,
      "Ġhá»©a": 2923,
      "Ġhá»ıa": 2924,
      "Ġtrc": 2925,
      "Ġtri": 2926,
      "ĠtrÃ´ng": 2927,
      "ĠtrÄĥ": 2928,
      "Ġtriá»ĩu": 2929,
      "ĠtrÃºng": 2930,
      "ĠtrÃ¢u": 2931,
      "ĠtrÃ´i": 2932,
      "ĠtráºŃn": 2933,
      "ĠtrÄĥn": 2934,
      "Ġtriá»ģn": 2935,
      "ĠtrÄĥm": 2936,
      "Ġtrá»Ļn": 2937,
      "ĠtrÃ¡i": 2938,
      "ĠniÃªn": 2939,
      "ĠnÃ¡o": 2940,
      "ĠnÃ²ng": 2941,
      "ĠnÃ¡n": 2942,
      "Ġnang": 2943,
      "Ġnai": 2944,
      "ĠnÃ©t": 2945,
      "Ġnfc": 2946,
      "Ġnet": 2947,
      "Ġthá»£": 2948,
      "Ġthá»Ŀ": 2949,
      "Ġthá»¥c": 2950,
      "ĠÄĳá»ħ": 2951,
      "ĠÄĳá»ĩ": 2952,
      "ĠÄĳá»ĳng": 2953,
      "ĠÄĳá»©t": 2954,
      "ĠÄĳá»¥ng": 2955,
      "Ġdáº¡nh": 2956,
      "ĠrÃŃ": 2957,
      "Ġrung": 2958,
      "Ġráº£i": 2959,
      "ĠrÃ´i": 2960,
      "Ġreo": 2961,
      "ĠrÃ¡t": 2962,
      "Ġráº¯m": 2963,
      "Ġráº¯t": 2964,
      "ĠrÄĥn": 2965,
      "Ġroo": 2966,
      "ĠrÃ¡ng": 2967,
      "Ġráº¯n": 2968,
      "Ġrea": 2969,
      "ĠrÆ¡i": 2970,
      "Ġren": 2971,
      "Ġdá»įng": 2972,
      "Ġdá»Ĺi": 2973,
      "Ġdá»©t": 2974,
      "Ġdá»įa": 2975,
      "Ġpc": 2976,
      "Ġpm": 2977,
      "Ġpin": 2978,
      "Ġpres": 2979,
      "Ġpap": 2980,
      "Ġpdf": 2981,
      "Ġpois": 2982,
      "ĠpÄĳ": 2983,
      "ĠphÃ´ng": 2984,
      "ĠphÃŃch": 2985,
      "ĠphÃ³ng": 2986,
      "Ġngu": 2987,
      "Ġngá»Ľ": 2988,
      "Ġnguy": 2989,
      "Ġngáº¡t": 2990,
      "Ġngang": 2991,
      "Ġngáº§u": 2992,
      "ĠngÃłng": 2993,
      "Ġngáº¯t": 2994,
      "Ġngáº©n": 2995,
      "ĠngáºŃm": 2996,
      "ĠngiÃªm": 2997,
      "ĠngÆ¡i": 2998,
      "Ġngáº§m": 2999,
      "Ġngáº«u": 3000,
      "Ġngá»ĳc": 3001,
      "ĠngÃ¹i": 3002,
      "ĠquÃłi": 3003,
      "ĠquÆ¡": 3004,
      "ĠquáºŃn": 3005,
      "Ġquáº·c": 3006,
      "Ġquic": 3007,
      "ĠquÃ£ng": 3008,
      "Ġquá»¹": 3009,
      "ĠgiÃłng": 3010,
      "Ġgiai": 3011,
      "ĠgiÃ£ng": 3012,
      "Ġgiven": 3013,
      "Ġcá»į": 3014,
      "Ġcá»Ł": 3015,
      "Ġcá»įc": 3016,
      "Ġcá»ķng": 3017,
      "Ġnghi": 3018,
      "Ġnghiá»ģn": 3019,
      "ĠnghÃ¬n": 3020,
      "ans": 3021,
      "Ġchá»ĵng": 3022,
      "Ġgiá»¥c": 3023,
      "Ġgiá»¡n": 3024,
      "Ġká»·": 3025,
      "Ġká»ĩ": 3026,
      "ĠkhÃ³c": 3027,
      "Ġtá»§": 3028,
      "Ġtá»ı": 3029,
      "Ġtá»Ŀ": 3030,
      "Ġtá»ĵi": 3031,
      "Ġtá»ĵn": 3032,
      "Ġsá»¡": 3033,
      "Ġsá»į": 3034,
      "Ġxi": 3035,
      "ĠxÃ¡o": 3036,
      "Ġxao": 3037,
      "Ġxáº¯p": 3038,
      "ĠxÃło": 3039,
      "Ġxim": 3040,
      "Ġxoay": 3041,
      "Ġbá»±": 3042,
      "Ġbá»ĵ": 3043,
      "Ġbá»±c": 3044,
      "ĠtruyÃªn": 3045,
      "cher": 3046,
      "ĠkhiÃªng": 3047,
      "Ġtrá»ĥ": 3048,
      "Ġtrá»į": 3049,
      "Ġmá»¹": 3050,
      "ĠlÃªnin": 3051,
      "Ġbus": 3052,
      "ĠbuÃ´i": 3053,
      "Ġbuá»ĳi": 3054,
      "Ġbuá»ĳn": 3055,
      "der": 3056,
      "Ġlá»³": 3057,
      "Ġlá»Ŀ": 3058,
      "Ġlá»ıng": 3059,
      "Ġlá»§ng": 3060,
      "Ġthuáº¿": 3061,
      "Ġthuáº«n": 3062,
      "Ġram": 3063,
      "Ġhoat": 3064,
      "Ġhome": 3065,
      "lish": 3066,
      "Ġá»©c": 3067,
      "Ġá»§ng": 3068,
      "Ġá»§a": 3069,
      "Ġtáº¡m": 3070,
      "ĠkhÃ¡ng": 3071,
      "ĠthiÃªng": 3072,
      "ĠnhÃłu": 3073,
      "Ġslides": 3074,
      "ĠluáºŃt": 3075,
      "Ġluá»ĵng": 3076,
      "Ġvá»£": 3077,
      "Ġvá»«": 3078,
      "Ġvá»įc": 3079,
      "Ġvá»±a": 3080,
      "Ġvá»§i": 3081,
      "Ġvá»īÃªn": 3082,
      "Ġchip": 3083,
      "Ġkháº£n": 3084,
      "Ġcomment": 3085,
      "ine": 3086,
      "indot": 3087,
      "Ġtá»±a": 3088,
      "Ġtá»±u": 3089,
      "Ġcuá»ĳc": 3090,
      "Ġ24": 3091,
      "Ġ27": 3092,
      "Ġ245": 3093,
      "Ġbáº¡nem": 3094,
      "Ġtoi": 3095,
      "ĠchuÃ´ng": 3096,
      "Ġngoáº£nh": 3097,
      "ĠcÆ¡m": 3098,
      "ĠcÆ¡n": 3099,
      "amous": 3100,
      "amwea": 3101,
      "ĠcÃ¡u": 3102,
      "doo": 3103,
      "door": 3104,
      "Ġthoáº£": 3105,
      "Ġthoáº¡t": 3106,
      "Ġnhá»§": 3107,
      "Ġnhá»ī": 3108,
      "Ġnhá»ĭ": 3109,
      "Ġnhá»įc": 3110,
      "Ġngá»įng": 3111,
      "Ġngá»įn": 3112,
      "ĠÄĳá»ĳn": 3113,
      "dotf": 3114,
      "Ġbá»ķn": 3115,
      "Ġkhoan": 3116,
      "ĠkhoÃ¡t": 3117,
      "ĠkhoÄĥn": 3118,
      "Ġ320": 3119,
      "Ġgá»Ŀ": 3120,
      "Ġgá»įc": 3121,
      "Ġgá»¥c": 3122,
      "Ġwe": 3123,
      "Ġwwzjwz": 3124,
      "Ġwit": 3125,
      "Ġwed": 3126,
      "Ġwre": 3127,
      "Ġword": 3128,
      "Ġwhile": 3129,
      "Ġwrit": 3130,
      "Ġwtf": 3131,
      "Ġhá»Ĺn": 3132,
      "Ġturnit": 3133,
      "Ġcodefun": 3134,
      "ĠdÃ¹m": 3135,
      "Ġsoáº£n": 3136,
      "Ġsocke": 3137,
      "ĠÄĳá»ĭa": 3138,
      "Ġloáº¡n": 3139,
      "ted": 3140,
      "teus": 3141,
      "ĠnhÃ¬u": 3142,
      "Ġfit": 3143,
      "Ġfork": 3144,
      "Ġfun": 3145,
      "Ġfull": 3146,
      "Ġfamous": 3147,
      "Ġ47": 3148,
      "Ġ49": 3149,
      "Ġghen": 3150,
      "ĠghÃ©t": 3151,
      "Ġdealine": 3152,
      "Ġsemim": 3153,
      "Ġláº¡m": 3154,
      "acement": 3155,
      "ery": 3156,
      "erran": 3157,
      "Ġ2015": 3158,
      "Ġ2011": 3159,
      "Ġ2048": 3160,
      "Ġmicrophone": 3161,
      "Ġmicroso": 3162,
      "ĠmuÃ´n": 3163,
      "side": 3164,
      "sion": 3165,
      "Ġucl": 3166,
      "Ġunit": 3167,
      "Ġunike": 3168,
      "Ġuser": 3169,
      "Ġcuáº£": 3170,
      "Ġcuá»Ĺi": 3171,
      "ĠkhÃ´g": 3172,
      "ĠhÆ°ng": 3173,
      "Ġbá»ĳc": 3174,
      "Ġcoursedotuitdotedudotvn": 3175,
      "Ġfrag": 3176,
      "Ġfree": 3177,
      "Ġoi": 3178,
      "Ġoan": 3179,
      "Ġoáº£i": 3180,
      "Ġodoo": 3181,
      "Ġupload": 3182,
      "Ġbá»¥t": 3183,
      "Ġ70": 3184,
      "300": 3185,
      "301": 3186,
      "302": 3187,
      "303": 3188,
      "304": 3189,
      "305": 3190,
      "307": 3191,
      "tor": 3192,
      "tolog": 3193,
      "Ġxá»©": 3194,
      "Ġprotu": 3195,
      "Ġproxy": 3196,
      "Ġproteus": 3197,
      "120": 3198,
      "121": 3199,
      "122": 3200,
      "123": 3201,
      "124": 3202,
      "127": 3203,
      "128": 3204,
      "129": 3205,
      "Ġif": 3206,
      "Ġide": 3207,
      "Ġipv": 3208,
      "Ġstru": 3209,
      "Ġstyle": 3210,
      "Ġchá»Ŀn": 3211,
      "tera": 3212,
      "101": 3213,
      "102": 3214,
      "103": 3215,
      "104": 3216,
      "105": 3217,
      "106": 3218,
      "107": 3219,
      "108": 3220,
      "Ġrá»ı": 3221,
      "Ġrá»ĩt": 3222,
      "Ġrá»Ĺng": 3223,
      "Ġconso": 3224,
      "Ġcontro": 3225,
      "Ġcolonsurprise": 3226,
      "131": 3227,
      "132": 3228,
      "134": 3229,
      "135": 3230,
      "137": 3231,
      "138": 3232,
      "139": 3233,
      "152": 3234,
      "153": 3235,
      "154": 3236,
      "156": 3237,
      "157": 3238,
      "158": 3239,
      "159": 3240,
      "dia": 3241,
      "verything": 3242,
      "Ġ85": 3243,
      "Ġjack": 3244,
      "Ġjqu": 3245,
      "Ġinput": 3246,
      "Ġtable": 3247,
      "Ġlá»ĳc": 3248,
      "Ġ2007": 3249,
      "190": 3250,
      "191": 3251,
      "193": 3252,
      "194": 3253,
      "195": 3254,
      "196": 3255,
      "197": 3256,
      "198": 3257,
      "199": 3258,
      "ĠsÆ°c": 3259,
      "ĠkhuÃ´ng": 3260,
      "Ġkhuáº¥y": 3261,
      "Ġstudy": 3262,
      "231": 3263,
      "232": 3264,
      "233": 3265,
      "235": 3266,
      "236": 3267,
      "237": 3268,
      "238": 3269,
      "239": 3270,
      "241": 3271,
      "242": 3272,
      "243": 3273,
      "244": 3274,
      "245": 3275,
      "246": 3276,
      "247": 3277,
      "249": 3278,
      "250": 3279,
      "251": 3280,
      "252": 3281,
      "253": 3282,
      "255": 3283,
      "256": 3284,
      "257": 3285,
      "259": 3286,
      "270": 3287,
      "272": 3288,
      "273": 3289,
      "274": 3290,
      "276": 3291,
      "277": 3292,
      "278": 3293,
      "279": 3294,
      "Ġ92": 3295,
      "Ġ95": 3296,
      "171": 3297,
      "173": 3298,
      "174": 3299,
      "175": 3300,
      "176": 3301,
      "177": 3302,
      "178": 3303,
      "201": 3304,
      "202": 3305,
      "203": 3306,
      "204": 3307,
      "205": 3308,
      "208": 3309,
      "209": 3310,
      "Ġlisp": 3311,
      "Ġmá»īm": 3312,
      "Ġcoloncolon": 3313,
      "162": 3314,
      "163": 3315,
      "164": 3316,
      "166": 3317,
      "168": 3318,
      "169": 3319,
      "291": 3320,
      "292": 3321,
      "293": 3322,
      "294": 3323,
      "295": 3324,
      "297": 3325,
      "299": 3326,
      "Ġ67": 3327,
      "Ġelab": 3328,
      "Ġego": 3329,
      "Ġelg": 3330,
      "Ġexte": 3331,
      "Ġeverything": 3332,
      "ĠthÃŃa": 3333,
      "140": 3334,
      "146": 3335,
      "149": 3336,
      "262": 3337,
      "263": 3338,
      "264": 3339,
      "265": 3340,
      "269": 3341,
      "281": 3342,
      "282": 3343,
      "283": 3344,
      "284": 3345,
      "285": 3346,
      "286": 3347,
      "289": 3348,
      "Ġside": 3349,
      "Ġsite": 3350,
      "Ġsize": 3351,
      "Ġposter": 3352,
      "Ġprojectbase": 3353,
      "180": 3354,
      "181": 3355,
      "182": 3356,
      "187": 3357,
      "step": 3358,
      "ĠmÃ£n": 3359,
      "entation": 3360,
      "Ġdaadotuitdotedudotvn": 3361,
      "Ġjavabe": 3362,
      "111": 3363,
      "ressive": 3364,
      "Ġcss": 3365,
      "Ġvertic": 3366,
      "Ġversion": 3367,
      "ply": 3368,
      "und": 3369,
      "Ġaep": 3370,
      "Ġapp": 3371,
      "Ġamp": 3372,
      "Ġkáº¹o": 3373,
      "Ġtuá»ĩ": 3374,
      "002": 3375,
      "003": 3376,
      "006": 3377,
      "com": 3378,
      "come": 3379,
      "raming": 3380,
      "Ġcase": 3381,
      "Ġrobin": 3382,
      "Ġround": 3383,
      "Ġtruyá»ĥn": 3384,
      "Ġform": 3385,
      "Ġforum": 3386,
      "Ġjsp": 3387,
      "Ġjson": 3388,
      "Ġteamwork": 3389,
      "222": 3390,
      "abc": 3391,
      "ments": 3392,
      "mentation": 3393,
      "Ġontolog": 3394,
      "Ġváº¹o": 3395,
      "Ġdev": 3396,
      "Ġdesign": 3397,
      "Ġlink": 3398,
      "Ġmáº¹o": 3399,
      "Ġtraning": 3400,
      "Ġnot": 3401,
      "Ġnope": 3402,
      "Ġnotep": 3403,
      "Ġoutput": 3404,
      "Ġoutdoor": 3405,
      "Ġoutcome": 3406,
      "xxx": 3407,
      "Ġassign": 3408,
      "Ġassem": 3409,
      "ĠâĢ¦": 3410,
      "ĠâĢĵ": 3411,
      "ĠÄĳáº¿m": 3412,
      "ĠgiáºŃn": 3413,
      "ĠgiáºŃt": 3414,
      "Ġrequi": 3415,
      "Ġreply": 3416,
      "Ġplacement": 3417,
      "Ġdownload": 3418,
      "Ġ1983": 3419,
      "Ġfix": 3420,
      "Ġfirmware": 3421,
      "Ġfeedback": 3422,
      "Ġuá»ĥ": 3423,
      "Ġuá»ķng": 3424,
      "Ġoverview": 3425,
      "Ġprogressive": 3426,
      "Ġprograming": 3427,
      "Ġenglish": 3428,
      "Ġengine": 3429,
      "Ġagile": 3430,
      "Ġagent": 3431,
      "bly": 3432,
      "dge": 3433,
      "dsmax": 3434,
      "sage": 3435,
      "ĠÃ²m": 3436,
      "ĠÃ¹n": 3437,
      "Ġeasy": 3438,
      "Ġaltera": 3439,
      "Ġadd": 3440,
      "ĠtÃ´t": 3441,
      "Ġteacher": 3442,
      "ĠtiÃªp": 3443,
      "Ġtime": 3444,
      "Ġcáº©u": 3445,
      "Ġcrack": 3446,
      "Ġcareer": 3447,
      "Ġclass": 3448,
      "Ġcnpm": 3449,
      "ĠvÆ°Æ¡n": 3450,
      "Ġvector": 3451,
      "Ġheader": 3452,
      "Ġháº¹n": 3453,
      "Ġhackerran": 3454,
      "ĠÄĳÃŃnh": 3455,
      "ĠÄĳÄ©a": 3456,
      "Ġgroup": 3457,
      "Ġdropbox": 3458,
      "Ġdriver": 3459,
      "Ġdreamwea": 3460,
      "Ġdbpedia": 3461,
      "Ġkaydotvn": 3462,
      "ĠnhÃ¡y": 3463,
      "Ġnhannh": 3464,
      "Ġnháº½o": 3465,
      "ĠlÃ£nh": 3466,
      "ĠlÃµng": 3467,
      "Ġsearch": 3468,
      "Ġstore": 3469,
      "Ġseverside": 3470,
      "Ġskype": 3471,
      "Ġswitch": 3472,
      "ĠchÃ¬a": 3473,
      "Ġchair": 3474,
      "Ġcheck": 3475,
      "ĠbÃºa": 3476,
      "Ġbayes": 3477,
      "Ġboss": 3478,
      "Ġbridge": 3479,
      "ĠmÃ³n": 3480,
      "Ġmini": 3481,
      "Ġmurray": 3482,
      "Ġmessage": 3483,
      "Ġmatlab": 3484,
      "Ġmiss": 3485,
      "ĠtrÄĥc": 3486,
      "Ġnaive": 3487,
      "Ġnetwork": 3488,
      "ĠrÃŃt": 3489,
      "Ġroom": 3490,
      "Ġreading": 3491,
      "Ġpresentation": 3492,
      "Ġpaper": 3493,
      "Ġpoison": 3494,
      "ĠpÄĳt": 3495,
      "Ġquick": 3496,
      "indotcom": 3497,
      "Ġwith": 3498,
      "Ġwrede": 3499,
      "Ġwriting": 3500,
      "Ġturnitindotcom": 3501,
      "Ġsocket": 3502,
      "Ġfitted": 3503,
      "Ġfunny": 3504,
      "Ġsemimar": 3505,
      "Ġmicrosoft": 3506,
      "Ġucla": 3507,
      "Ġunikey": 3508,
      "Ġfragmentation": 3509,
      "Ġprotues": 3510,
      "Ġstruct": 3511,
      "Ġconsole": 3512,
      "Ġcontrol": 3513,
      "Ġjquery": 3514,
      "Ġegov": 3515,
      "Ġextensive": 3516,
      "Ġjavabeans": 3517,
      "Ġvertical": 3518,
      "Ġontology": 3519,
      "Ġnotepad": 3520,
      "Ġassignments": 3521,
      "Ġassembly": 3522,
      "Ġrequirement": 3523,
      "Ġhackerrank": 3524,
      "Ġdreamweaver": 3525
    },
    "merges": [
      [
        "á",
        "»"
      ],
      [
        "á",
        "º"
      ],
      [
        "Ġ",
        "t"
      ],
      [
        "n",
        "g"
      ],
      [
        "Ġ",
        "c"
      ],
      [
        "n",
        "h"
      ],
      [
        "Ġ",
        "v"
      ],
      [
        "Ġt",
        "h"
      ],
      [
        "Ġ",
        "h"
      ],
      [
        "Ġ",
        "."
      ],
      [
        "Ã",
        "ł"
      ],
      [
        "i",
        "á»"
      ],
      [
        "Ġ",
        "Ä"
      ],
      [
        "ĠÄ",
        "ĳ"
      ],
      [
        "Ã",
        "ª"
      ],
      [
        "Ġ",
        "g"
      ],
      [
        "Ãª",
        "n"
      ],
      [
        "Ġ",
        "d"
      ],
      [
        "Ġ",
        "k"
      ],
      [
        "i",
        "áº"
      ],
      [
        "Ġ",
        ","
      ],
      [
        "Ġ",
        "nh"
      ],
      [
        "Ġ",
        "l"
      ],
      [
        "Ã",
        "¡"
      ],
      [
        "Ġ",
        "s"
      ],
      [
        "Ã",
        "´"
      ],
      [
        "áº",
        "¡"
      ],
      [
        "Ġc",
        "h"
      ],
      [
        "Ġ",
        "b"
      ],
      [
        "Æ",
        "°"
      ],
      [
        "áº",
        "§"
      ],
      [
        "i",
        "Ãªn"
      ],
      [
        "Ġv",
        "iÃªn"
      ],
      [
        "Ġk",
        "h"
      ],
      [
        "Ġ",
        "m"
      ],
      [
        "Ġg",
        "iáº"
      ],
      [
        "Ġgiáº",
        "£"
      ],
      [
        "Ã",
        "¬"
      ],
      [
        "Ġh",
        "á»"
      ],
      [
        "Ġt",
        "r"
      ],
      [
        "Ġ",
        "n"
      ],
      [
        "Ã",
        "³"
      ],
      [
        "Ġgiáº£",
        "ng"
      ],
      [
        "Ġth",
        "á»"
      ],
      [
        "iá»",
        "ĩ"
      ],
      [
        "áº",
        "¥"
      ],
      [
        "áº",
        "Ń"
      ],
      [
        "áº§",
        "y"
      ],
      [
        "ĠÄĳ",
        "á»"
      ],
      [
        "i",
        "nh"
      ],
      [
        "á»",
        "Ľ"
      ],
      [
        "Ġd",
        "áº¡"
      ],
      [
        "Ġ",
        "r"
      ],
      [
        "Ġdáº¡",
        "y"
      ],
      [
        "Ã¬",
        "nh"
      ],
      [
        "Ãł",
        "i"
      ],
      [
        "Ġth",
        "áº§y"
      ],
      [
        "Ġs",
        "inh"
      ],
      [
        "į",
        "c"
      ],
      [
        "Ġhá»",
        "įc"
      ],
      [
        "iáº",
        "¿"
      ],
      [
        "Ã´",
        "ng"
      ],
      [
        "áº¥",
        "t"
      ],
      [
        "Ġt",
        "áºŃ"
      ],
      [
        "Æ",
        "¡"
      ],
      [
        "Ġv",
        "Ãł"
      ],
      [
        "Ġb",
        "Ãłi"
      ],
      [
        "áº",
        "£"
      ],
      [
        "Ġt",
        "Ã¬nh"
      ],
      [
        "iá»",
        "ĥ"
      ],
      [
        "Ġd",
        "á»"
      ],
      [
        "Ã",
        "¢"
      ],
      [
        "Ġ",
        "p"
      ],
      [
        "Ġkh",
        "Ã´ng"
      ],
      [
        "Ġp",
        "h"
      ],
      [
        "Æ°",
        "á»"
      ],
      [
        "Ġc",
        "Ã³"
      ],
      [
        "iá»ĩ",
        "t"
      ],
      [
        "áº",
        "¿"
      ],
      [
        "u",
        "y"
      ],
      [
        "Ġr",
        "áº¥t"
      ],
      [
        "Ġnh",
        "iá»ĩt"
      ],
      [
        "Ã¡",
        "c"
      ],
      [
        "ģ",
        "u"
      ],
      [
        "Ġ",
        "q"
      ],
      [
        "iá»",
        "ģu"
      ],
      [
        "iá»ĥ",
        "u"
      ],
      [
        "Ġ",
        "ng"
      ],
      [
        "Ġq",
        "u"
      ],
      [
        "Ġch",
        "o"
      ],
      [
        "Ġh",
        "iá»ĥu"
      ],
      [
        "±",
        "c"
      ],
      [
        "Ġg",
        "i"
      ],
      [
        "Ã",
        "Ń"
      ],
      [
        "Ġnh",
        "iá»ģu"
      ],
      [
        "Ã",
        "º"
      ],
      [
        "á»",
        "ĳ"
      ],
      [
        "áº§",
        "n"
      ],
      [
        "Ã´",
        "n"
      ],
      [
        "Ġc",
        "Ã¡c"
      ],
      [
        "Ġl",
        "Ãł"
      ],
      [
        "ĠtáºŃ",
        "p"
      ],
      [
        "á»Ľ",
        "i"
      ],
      [
        "Ġc",
        "á»"
      ],
      [
        "Ġdá»",
        "ħ"
      ],
      [
        "Ġthá»",
        "±c"
      ],
      [
        "Ġh",
        "Æ¡"
      ],
      [
        "Æ°á»",
        "£"
      ],
      [
        "á»",
        "ģ"
      ],
      [
        "á»",
        "Ļ"
      ],
      [
        "Ġc",
        "Ã´"
      ],
      [
        "©",
        "c"
      ],
      [
        "a",
        "y"
      ],
      [
        "e",
        "m"
      ],
      [
        "o",
        "ng"
      ],
      [
        "iáº¿",
        "n"
      ],
      [
        "Ã¢",
        "m"
      ],
      [
        "áº",
        "¯"
      ],
      [
        "Ġm",
        "Ã´n"
      ],
      [
        "Ġn",
        "Ãªn"
      ],
      [
        "Ġt",
        "Ã¢m"
      ],
      [
        "Ãł",
        "nh"
      ],
      [
        "Ġv",
        "á»Ľi"
      ],
      [
        "Ġthá»",
        "©c"
      ],
      [
        "Ã",
        "²"
      ],
      [
        "Æ°á»£",
        "c"
      ],
      [
        "ĠÄĳ",
        "Æ°á»£c"
      ],
      [
        "Ġk",
        "iáº¿n"
      ],
      [
        "ĠhÆ¡",
        "n"
      ],
      [
        "ĠtáºŃ",
        "n"
      ],
      [
        "Ġ",
        "em"
      ],
      [
        "Ġcá»",
        "§"
      ],
      [
        "Ġl",
        "á»Ľ"
      ],
      [
        "Ġcá»§",
        "a"
      ],
      [
        "Ã¡",
        "o"
      ],
      [
        "Ġt",
        "iáº¿"
      ],
      [
        "Ġh",
        "ay"
      ],
      [
        "Ġng",
        "h"
      ],
      [
        "áº¿",
        "t"
      ],
      [
        "Ġlá»Ľ",
        "p"
      ],
      [
        "a",
        "n"
      ],
      [
        "Ġh",
        "Ãłnh"
      ],
      [
        "Ġch",
        "á»"
      ],
      [
        "u",
        "ng"
      ],
      [
        "Ŀ",
        "i"
      ],
      [
        "Ġc",
        "áº§n"
      ],
      [
        "Ã",
        "½"
      ],
      [
        "Ġnh",
        "Æ°"
      ],
      [
        "ĠÄĳá»",
        "ĥ"
      ],
      [
        "Ġtr",
        "ong"
      ],
      [
        "Ġg",
        "iá»"
      ],
      [
        "Æ°",
        "a"
      ],
      [
        "á»",
        "¯"
      ],
      [
        "Ġt",
        "á»ĳ"
      ],
      [
        "Ġk",
        "á»"
      ],
      [
        "ĠlÃł",
        "m"
      ],
      [
        "Ġqu",
        "Ã¡"
      ],
      [
        "Ä",
        "ĥ"
      ],
      [
        "Ġkh",
        "Ã³"
      ],
      [
        "Ġtá»ĳ",
        "t"
      ],
      [
        "áº¡",
        "t"
      ],
      [
        "Ġt",
        "á»"
      ],
      [
        "Æ°",
        "á»Ľ"
      ],
      [
        "Ġs",
        "á»"
      ],
      [
        "©",
        "ng"
      ],
      [
        "uy",
        "áº¿t"
      ],
      [
        "Ġ",
        "x"
      ],
      [
        "Ġdá»",
        "¥"
      ],
      [
        "u",
        "i"
      ],
      [
        "Ġv",
        "ui"
      ],
      [
        "Æ°",
        "Æ¡"
      ],
      [
        "Æ°Æ¡",
        "ng"
      ],
      [
        "Ġt",
        "ÃŃ"
      ],
      [
        "Ġb",
        "á»"
      ],
      [
        "áº",
        "«"
      ],
      [
        "iá»ĩ",
        "u"
      ],
      [
        "Ġgi",
        "Ã¡o"
      ],
      [
        "Ġv",
        "á»ģ"
      ],
      [
        "Ã¡",
        "p"
      ],
      [
        "Ġch",
        "Æ°a"
      ],
      [
        "á»ģ",
        "n"
      ],
      [
        "a",
        "nh"
      ],
      [
        "Ġtr",
        "uy"
      ],
      [
        "á»¯",
        "ng"
      ],
      [
        "Ġl",
        "Ã½"
      ],
      [
        "áº«",
        "n"
      ],
      [
        "ĠcÃ¡c",
        "h"
      ],
      [
        "Ġtruy",
        "á»ģn"
      ],
      [
        "á»Ļ",
        "t"
      ],
      [
        "Ġtr",
        "Ã¬nh"
      ],
      [
        "Ġm",
        "á»Ļt"
      ],
      [
        "ĠÄĳ",
        "áº¡t"
      ],
      [
        "Ġnh",
        "á»¯ng"
      ],
      [
        "c",
        "h"
      ],
      [
        "Ŀ",
        "ng"
      ],
      [
        "Æ°á»",
        "Ŀng"
      ],
      [
        "Ġn",
        "Ãł"
      ],
      [
        "Ġgiá»",
        "Ŀ"
      ],
      [
        "Ġkh",
        "i"
      ],
      [
        "Äĥ",
        "ng"
      ],
      [
        "Ġn",
        "Ã³"
      ],
      [
        "iáº¿",
        "t"
      ],
      [
        "áº¡",
        "i"
      ],
      [
        "ĠtÃŃ",
        "nh"
      ],
      [
        "Ġthá»",
        "ĥ"
      ],
      [
        "áº£",
        "i"
      ],
      [
        "Ã²",
        "ng"
      ],
      [
        "ĠÄĳá»",
        "ģ"
      ],
      [
        "áº¯",
        "c"
      ],
      [
        "Ġthá»",
        "Ŀi"
      ],
      [
        "Ã¡",
        "n"
      ],
      [
        "a",
        "o"
      ],
      [
        "Ġtr",
        "á»"
      ],
      [
        "w",
        "z"
      ],
      [
        "ĠÄĳá»",
        "Ļ"
      ],
      [
        "ķ",
        "i"
      ],
      [
        "Ã",
        "¹"
      ],
      [
        "áº",
        "·"
      ],
      [
        "Ġh",
        "Æ°á»Ľ"
      ],
      [
        "Ġd",
        "áº«n"
      ],
      [
        "Ġchá»",
        "ī"
      ],
      [
        "Ġm",
        "á»"
      ],
      [
        "áº¿",
        "n"
      ],
      [
        "Ãª",
        "m"
      ],
      [
        "iá»ĩ",
        "n"
      ],
      [
        "Ġth",
        "uyáº¿t"
      ],
      [
        "Ġgiáº£",
        "i"
      ],
      [
        "Ġl",
        "Ãªn"
      ],
      [
        "ĠnÃ³",
        "i"
      ],
      [
        "Ġv",
        "iá»ĩ"
      ],
      [
        "Ġviá»ĩ",
        "c"
      ],
      [
        "Ġn",
        "á»Ļ"
      ],
      [
        "Ãº",
        "ng"
      ],
      [
        "ĠÄĳ",
        "áº¿n"
      ],
      [
        "iá»ĥ",
        "m"
      ],
      [
        "Ġdá»¥",
        "ng"
      ],
      [
        "ĠnhÆ°",
        "ng"
      ],
      [
        "Ġgi",
        "an"
      ],
      [
        "Ãº",
        "p"
      ],
      [
        "ĠhÆ°á»Ľ",
        "ng"
      ],
      [
        "ĠhÆ¡",
        "i"
      ],
      [
        "Ġb",
        "u"
      ],
      [
        "Ġgi",
        "Ãºp"
      ],
      [
        "d",
        "e"
      ],
      [
        "Ġm",
        "Ã¡"
      ],
      [
        "Ã²",
        "n"
      ],
      [
        "Ġ",
        "!"
      ],
      [
        "Ġd",
        "ung"
      ],
      [
        "Ġká»",
        "¹"
      ],
      [
        "Ġc",
        "Ã²n"
      ],
      [
        "Ġth",
        "Ã¬"
      ],
      [
        "Ġtiáº¿",
        "t"
      ],
      [
        "áº£",
        "m"
      ],
      [
        "Ġc",
        "Å"
      ],
      [
        "Ġth",
        "Ãªm"
      ],
      [
        "Ġb",
        "áº£"
      ],
      [
        "Ġbu",
        "á»"
      ],
      [
        "Ġl",
        "á»"
      ],
      [
        "Ġtr",
        "Ãªn"
      ],
      [
        "Ġná»Ļ",
        "i"
      ],
      [
        "Ġtiáº¿",
        "p"
      ],
      [
        "ĠnÃł",
        "y"
      ],
      [
        "ĠÄĳá»",
        "ĵ"
      ],
      [
        "Ġph",
        "áº§n"
      ],
      [
        "Ġqu",
        "an"
      ],
      [
        "Ġl",
        "áº¡i"
      ],
      [
        "Ġbá»",
        "ĭ"
      ],
      [
        "Ġth",
        "u"
      ],
      [
        "Ġm",
        "Ãł"
      ],
      [
        "ĠÄĳá»",
        "§"
      ],
      [
        "Ġr",
        "a"
      ],
      [
        "Ġr",
        "Ã"
      ],
      [
        "áº",
        "»"
      ],
      [
        "Ġn",
        "Äĥng"
      ],
      [
        "Ġ",
        "ÃŃ"
      ],
      [
        "Ġqu",
        "áº£"
      ],
      [
        "Ã¢",
        "u"
      ],
      [
        "Ġph",
        "Ã²ng"
      ],
      [
        "Ã¢",
        "n"
      ],
      [
        "ĠcÅ",
        "©ng"
      ],
      [
        "Ġh",
        "o"
      ],
      [
        "l",
        "i"
      ],
      [
        "ĠÄĳá»Ļ",
        "ng"
      ],
      [
        "ĠÄĳ",
        "iá»ĥm"
      ],
      [
        "áº¥",
        "p"
      ],
      [
        "ĠvÃł",
        "o"
      ],
      [
        "Ġ",
        "á»"
      ],
      [
        "Ġt",
        "áº¡"
      ],
      [
        "ĠÄĳ",
        "i"
      ],
      [
        "uy",
        "Ãªn"
      ],
      [
        "Ġt",
        "Ãłi"
      ],
      [
        "Ġtáº¡",
        "o"
      ],
      [
        "Ġkh",
        "Ã¡"
      ],
      [
        "Ġl",
        "iá»ĩu"
      ],
      [
        "Ġsá»",
        "±"
      ],
      [
        "áºŃ",
        "t"
      ],
      [
        "ĠrÃ",
        "µ"
      ],
      [
        "Ġhá»",
        "£"
      ],
      [
        "Ġth",
        "i"
      ],
      [
        "Ġhá»£",
        "p"
      ],
      [
        "áº¥",
        "y"
      ],
      [
        "u",
        "á»ĳ"
      ],
      [
        "ĠmÃ¡",
        "y"
      ],
      [
        "Ġph",
        "áº£i"
      ],
      [
        "Ġ",
        "Ã¡n"
      ],
      [
        "Ġc",
        "áº¥p"
      ],
      [
        "ĠÄĳ",
        "Ãºng"
      ],
      [
        "Ġs",
        "á»ĳ"
      ],
      [
        "Ġsá»",
        "Ń"
      ],
      [
        "Ġt",
        "áº¿"
      ],
      [
        "Ġv",
        "áº»"
      ],
      [
        "Ġnh",
        "Ãł"
      ],
      [
        "Ãº",
        "c"
      ],
      [
        "Æ°á»£",
        "ng"
      ],
      [
        "Ġnh",
        "anh"
      ],
      [
        "Ġs",
        "li"
      ],
      [
        "Ġngh",
        "á»"
      ],
      [
        "Ġbuá»",
        "ķi"
      ],
      [
        "a",
        "ng"
      ],
      [
        "Ġtá»",
        "«"
      ],
      [
        "Ġsli",
        "de"
      ],
      [
        "Ġh",
        "iá»ĩu"
      ],
      [
        "Ġká»",
        "³"
      ],
      [
        "áº§",
        "u"
      ],
      [
        "Ġl",
        "u"
      ],
      [
        "į",
        "ng"
      ],
      [
        "Ġv",
        "á»"
      ],
      [
        "a",
        "u"
      ],
      [
        "ĠÄĳ",
        "áº§y"
      ],
      [
        "Ġth",
        "Æ°á»Ŀng"
      ],
      [
        "Ġg",
        "Ã¬"
      ],
      [
        "Ġch",
        "i"
      ],
      [
        "Ġph",
        "Ã¡p"
      ],
      [
        "áºŃ",
        "p"
      ],
      [
        "Ã",
        "£"
      ],
      [
        "Ġth",
        "iáº¿t"
      ],
      [
        "Ġm",
        "á»Ľi"
      ],
      [
        "l",
        "e"
      ],
      [
        "Ġv",
        "Ã¬"
      ],
      [
        "Ã´",
        "i"
      ],
      [
        "ĠÃŃ",
        "t"
      ],
      [
        "Ġv",
        "ÃŃ"
      ],
      [
        "Ãł",
        "ng"
      ],
      [
        "Ġd",
        "o"
      ],
      [
        "Ġl",
        "Æ°á»£ng"
      ],
      [
        "Ġc",
        "ao"
      ],
      [
        "e",
        "o"
      ],
      [
        "áºŃ",
        "n"
      ],
      [
        "Ã¡",
        "t"
      ],
      [
        "ı",
        "i"
      ],
      [
        "áº¡",
        "n"
      ],
      [
        "Ġkh",
        "áº£"
      ],
      [
        "Ġth",
        "eo"
      ],
      [
        "áº¯",
        "m"
      ],
      [
        "j",
        "wz"
      ],
      [
        "wz",
        "jwz"
      ],
      [
        "Ġ",
        "wzjwz"
      ],
      [
        "Æ°á»Ľ",
        "c"
      ],
      [
        "Ġngh",
        "e"
      ],
      [
        "Ġph",
        "Æ°Æ¡ng"
      ],
      [
        "Ġc",
        "o"
      ],
      [
        "áº¥",
        "n"
      ],
      [
        "Ġc",
        "Ã´ng"
      ],
      [
        "Ġth",
        "Ã´ng"
      ],
      [
        "Ã¢",
        "y"
      ],
      [
        "Ġlu",
        "Ã´n"
      ],
      [
        "uy",
        "á»"
      ],
      [
        "a",
        "i"
      ],
      [
        "Ġb",
        "Ã¡o"
      ],
      [
        "ĵ",
        "i"
      ],
      [
        "Ġth",
        "iá»ĩn"
      ],
      [
        "ĠÄĳ",
        "Ã¡p"
      ],
      [
        "áº",
        "½"
      ],
      [
        "Ġc",
        "ung"
      ],
      [
        "Ġc",
        "áº£m"
      ],
      [
        "i",
        "n"
      ],
      [
        "Ġbáº£",
        "o"
      ],
      [
        "ĠÄĳ",
        "Ã³"
      ],
      [
        "Ġ",
        "Ã½"
      ],
      [
        "Ġtr",
        "Æ°á»Ŀng"
      ],
      [
        "Ġ",
        "anh"
      ],
      [
        "ÃŃ",
        "ch"
      ],
      [
        "Ġb",
        "iáº¿t"
      ],
      [
        "uyá»",
        "ĩ"
      ],
      [
        "Ġth",
        "áº¥y"
      ],
      [
        "iáº¿",
        "u"
      ],
      [
        "Ġv",
        "áº¥n"
      ],
      [
        "Ãł",
        "n"
      ],
      [
        "Ġh",
        "uyáº¿t"
      ],
      [
        "ĠÄĳ",
        "Ã£"
      ],
      [
        "Ġch",
        "áº¥t"
      ],
      [
        "Ġtr",
        "Æ°á»Ľc"
      ],
      [
        "Ã",
        "©"
      ],
      [
        "Ġtá»",
        "±"
      ],
      [
        "á»",
        "ĵi"
      ],
      [
        "Ãª",
        "u"
      ],
      [
        "áº·",
        "c"
      ],
      [
        "Ġhá»",
        "ıi"
      ],
      [
        "Ġc",
        "uá»ĳ"
      ],
      [
        "Ġm",
        "ong"
      ],
      [
        "Ġtiáº¿",
        "ng"
      ],
      [
        "Ġnghá»",
        "ī"
      ],
      [
        "Ġs",
        "au"
      ],
      [
        "Ãº",
        "t"
      ],
      [
        "Ġkh",
        "Ã¡c"
      ],
      [
        "¥",
        "c"
      ],
      [
        "iá»",
        "ħ"
      ],
      [
        "Ġm",
        "áº¯c"
      ],
      [
        "Ġ",
        "y"
      ],
      [
        "Ġl",
        "iÃªn"
      ],
      [
        "±",
        "ng"
      ],
      [
        "Ġhá»",
        "©ng"
      ],
      [
        "iá»ħ",
        "n"
      ],
      [
        "Ġth",
        "áº¯c"
      ],
      [
        "Ã³",
        "m"
      ],
      [
        "Ġth",
        "Ã¢n"
      ],
      [
        "ĠÄĳ",
        "Æ°a"
      ],
      [
        "Ġcá»",
        "¥"
      ],
      [
        "Ġs",
        "áº½"
      ],
      [
        "Ġá»",
        "Ł"
      ],
      [
        "Ġg",
        "áº§n"
      ],
      [
        "ĠnÃł",
        "o"
      ],
      [
        "Ġ",
        "2"
      ],
      [
        "Æ°á»",
        "Ŀi"
      ],
      [
        "Ĺ",
        "i"
      ],
      [
        "Ġth",
        "Ãº"
      ],
      [
        "ĠÄĳ",
        "áº£m"
      ],
      [
        "Ġh",
        "Ãłi"
      ],
      [
        "Ġc",
        "áº£"
      ],
      [
        "Ġnh",
        "Ã³m"
      ],
      [
        "Ġb",
        "áº¡n"
      ],
      [
        "áº¿",
        "u"
      ],
      [
        "Ä",
        "©"
      ],
      [
        "Ġth",
        "ÃŃch"
      ],
      [
        "Ã¹",
        "ng"
      ],
      [
        "áº¯",
        "t"
      ],
      [
        "Ġnh",
        "áº¥t"
      ],
      [
        "Äĥ",
        "n"
      ],
      [
        "Ġs",
        "Ã¡t"
      ],
      [
        "Ġt",
        "o"
      ],
      [
        "ĠÄĳ",
        "iá»ģu"
      ],
      [
        "áº",
        "±ng"
      ],
      [
        "Ġch",
        "u"
      ],
      [
        "Ġx",
        "uyÃªn"
      ],
      [
        "uyá»ĩ",
        "n"
      ],
      [
        "Ġ",
        "\""
      ],
      [
        "Ġh",
        "Ã¬nh"
      ],
      [
        "Ġg",
        "Ã¢y"
      ],
      [
        "Ġl",
        "Ãºc"
      ],
      [
        "Ġqu",
        "a"
      ],
      [
        "Ġng",
        "Æ°á»Ŀi"
      ],
      [
        "Ġc",
        "áºŃp"
      ],
      [
        "Ġhá»",
        "ĩ"
      ],
      [
        "Ġng",
        "o"
      ],
      [
        "Ã¢",
        "ng"
      ],
      [
        "Ġcuá»ĳ",
        "i"
      ],
      [
        "Ġc",
        "Æ¡"
      ],
      [
        "Ġtrá»",
        "įng"
      ],
      [
        "Ġngh",
        "iá»ĩ"
      ],
      [
        "a",
        "m"
      ],
      [
        "Ġt",
        "iá»ħn"
      ],
      [
        "Ġn",
        "áº¯m"
      ],
      [
        "Ġn",
        "Ã¢ng"
      ],
      [
        "ĠÄĳá»",
        "¡"
      ],
      [
        "Ġch",
        "Æ°Æ¡ng"
      ],
      [
        "Ġc",
        "Ã¢u"
      ],
      [
        "Ġngh",
        "Ä©"
      ],
      [
        "Ġ",
        "1"
      ],
      [
        "Ãł",
        "y"
      ],
      [
        "Ã¡",
        "nh"
      ],
      [
        "ĠÄĳá»",
        "ķi"
      ],
      [
        "Ġc",
        "Ã¡"
      ],
      [
        "Ġr",
        "á»ĵi"
      ],
      [
        "Ġ",
        "Ã¡p"
      ],
      [
        "Ġt",
        "Äĥng"
      ],
      [
        "Ġs",
        "Ã¢u"
      ],
      [
        "Ġch",
        "uyÃªn"
      ],
      [
        "á»¯",
        "a"
      ],
      [
        "ĵ",
        "n"
      ],
      [
        "d",
        "o"
      ],
      [
        "Ġch",
        "Ã¡n"
      ],
      [
        "Ġho",
        "áº¡t"
      ],
      [
        "o",
        "n"
      ],
      [
        "ĠÄĳ",
        "áº§u"
      ],
      [
        "Ġch",
        "Ãºng"
      ],
      [
        "Ġr",
        "Ãłng"
      ],
      [
        "Ġngo",
        "Ãłi"
      ],
      [
        "Ġt",
        "á»Ľi"
      ],
      [
        "Ġth",
        "o"
      ],
      [
        "Ġl",
        "Ã²ng"
      ],
      [
        "¯",
        "a"
      ],
      [
        "ĳ",
        "ng"
      ],
      [
        "Ġnh",
        "á»"
      ],
      [
        "Ġb",
        "áº±ng"
      ],
      [
        "Ġn",
        "á»¯a"
      ],
      [
        "Ġng",
        "á»"
      ],
      [
        "Ġth",
        "ay"
      ],
      [
        "Ġnh",
        "áºŃt"
      ],
      [
        "Ġk",
        "áº¿t"
      ],
      [
        "Ġb",
        "áº¯t"
      ],
      [
        "ĠÄĳá»",
        "ĳ"
      ],
      [
        "Ġbáº£",
        "n"
      ],
      [
        "do",
        "t"
      ],
      [
        "Ġh",
        "áº¿t"
      ],
      [
        "Ġph",
        "Ã¹"
      ],
      [
        "áº",
        "©"
      ],
      [
        "Ġm",
        "Ã¬nh"
      ],
      [
        "Ġcá»",
        "±c"
      ],
      [
        "Ġbá»",
        "ķ"
      ],
      [
        "ĠÄĳá»ĵ",
        "ng"
      ],
      [
        "į",
        "n"
      ],
      [
        "Ġmá»",
        "Ĺi"
      ],
      [
        "ĠÄĳá»ĳ",
        "i"
      ],
      [
        "Ġt",
        "Æ°Æ¡ng"
      ],
      [
        "Ġtr",
        "ung"
      ],
      [
        "Ġt",
        "Ã¬"
      ],
      [
        "ĠtÃ¬",
        "m"
      ],
      [
        "Ġt",
        "Ã¡c"
      ],
      [
        "Ġy",
        "Ãªu"
      ],
      [
        "Ġch",
        "iáº¿u"
      ],
      [
        "áºŃ",
        "y"
      ],
      [
        "Ġngá»",
        "§"
      ],
      [
        "Ġ",
        "áº¡"
      ],
      [
        "ĠÄĳ",
        "Ã´i"
      ],
      [
        "áº¥",
        "m"
      ],
      [
        "Ġkh",
        "o"
      ],
      [
        "Ġtr",
        "ang"
      ],
      [
        "Ġc",
        "áº§u"
      ],
      [
        "ĠÄĳá»",
        "ģu"
      ],
      [
        "Ġtrá»",
        "ħ"
      ],
      [
        "Ġ",
        "3"
      ],
      [
        "Ġth",
        "áºŃt"
      ],
      [
        "Ġh",
        "iá»ĩn"
      ],
      [
        "Ġn",
        "áº¿u"
      ],
      [
        "Ġlá»",
        "Ŀi"
      ],
      [
        "Ġá»",
        "©ng"
      ],
      [
        "Ġsá»Ń",
        "a"
      ],
      [
        "áº©",
        "n"
      ],
      [
        "áº·",
        "t"
      ],
      [
        "Ġtá»«",
        "ng"
      ],
      [
        "Ġv",
        "áºŃy"
      ],
      [
        "ĠtÃŃ",
        "ch"
      ],
      [
        "Ġth",
        "Æ°Æ¡ng"
      ],
      [
        "Ġthá»",
        "ĳng"
      ],
      [
        "Ġtrá»",
        "£"
      ],
      [
        "ĠcÃ¡",
        "i"
      ],
      [
        "Ġtho",
        "áº£i"
      ],
      [
        "u",
        "b"
      ],
      [
        "Ġch",
        "áº¥m"
      ],
      [
        "Ġgiá»",
        "¯a"
      ],
      [
        "ĠmÃ¡",
        "i"
      ],
      [
        "Ġbuá»",
        "ĵn"
      ],
      [
        "Ġ",
        "Ã´n"
      ],
      [
        "ĭ",
        "ch"
      ],
      [
        "Ġnghiá»ĩ",
        "m"
      ],
      [
        "©",
        "i"
      ],
      [
        "Å",
        "©i"
      ],
      [
        "Ġg",
        "Å©i"
      ],
      [
        "Ġm",
        "áº¡"
      ],
      [
        "Ġph",
        "Ã¢n"
      ],
      [
        "Ġchá»",
        "§"
      ],
      [
        "Ġv",
        "áº«n"
      ],
      [
        "áºŃ",
        "m"
      ],
      [
        "Ġt",
        "in"
      ],
      [
        "iá»",
        "ģ"
      ],
      [
        "ĠÃŃ",
        "ch"
      ],
      [
        "o",
        "o"
      ],
      [
        "Ġg",
        "á»"
      ],
      [
        "Ġchu",
        "áº©n"
      ],
      [
        "ĭ",
        "p"
      ],
      [
        "Æ¡",
        "n"
      ],
      [
        "Ġtá»",
        "¥"
      ],
      [
        "Ġ",
        "w"
      ],
      [
        "Ġth",
        "iáº¿u"
      ],
      [
        "Ġhá»",
        "Ĺ"
      ],
      [
        "Ġtr",
        "a"
      ],
      [
        "Ġlá»",
        "±c"
      ],
      [
        "ub",
        "le"
      ],
      [
        "Ġk",
        "iá»ĥm"
      ],
      [
        "Ġch",
        "áºŃm"
      ],
      [
        "Ġn",
        "á»"
      ],
      [
        "Ġká»",
        "ĭp"
      ],
      [
        "Ġt",
        "u"
      ],
      [
        "Ġnhá»",
        "ı"
      ],
      [
        "«",
        "a"
      ],
      [
        "ĠÄĳá»",
        "įc"
      ],
      [
        "iá»ģ",
        "n"
      ],
      [
        "uble",
        "dot"
      ],
      [
        "Ġk",
        "inh"
      ],
      [
        "Ġph",
        "á»"
      ],
      [
        "l",
        "on"
      ],
      [
        "į",
        "i"
      ],
      [
        "Ġr",
        "á»Ļ"
      ],
      [
        "Ġho",
        "áº·c"
      ],
      [
        "Ġdo",
        "ubledot"
      ],
      [
        "Ġco",
        "de"
      ],
      [
        "Ġ",
        "("
      ],
      [
        "Ġ",
        ")"
      ],
      [
        "Ġh",
        "Ãºt"
      ],
      [
        "Ġd",
        "Ã¹"
      ],
      [
        "Ġch",
        "ÃŃ"
      ],
      [
        "Ġrá»Ļ",
        "ng"
      ],
      [
        "áº¯",
        "ng"
      ],
      [
        "Ġvá»",
        "«a"
      ],
      [
        "Ġco",
        "lon"
      ],
      [
        "Ġl",
        "áº¯m"
      ],
      [
        "Ã¡",
        "ng"
      ],
      [
        "Ġch",
        "uyá»ĩn"
      ],
      [
        "Ġtr",
        "áº£"
      ],
      [
        "Ġs",
        "o"
      ],
      [
        "ĠÄĳá»",
        "ĭ"
      ],
      [
        "Ġth",
        "Ãłnh"
      ],
      [
        "Ġth",
        "am"
      ],
      [
        "ĠÄĳ",
        "a"
      ],
      [
        "Ġl",
        "o"
      ],
      [
        "ĠÄĳá»ĭ",
        "nh"
      ],
      [
        "Ġth",
        "áº¿"
      ],
      [
        "Ġto",
        "Ãłn"
      ],
      [
        "i",
        "le"
      ],
      [
        "Ġc",
        "Ã¹ng"
      ],
      [
        "Ġph",
        "Ã¡t"
      ],
      [
        "áº·",
        "p"
      ],
      [
        "Ġmá»",
        "Ł"
      ],
      [
        "Ġlá»",
        "ĭch"
      ],
      [
        "Ġtu",
        "áº§n"
      ],
      [
        "Ġch",
        "Ãº"
      ],
      [
        "Ġmá»",
        "įi"
      ],
      [
        "Ġl",
        "áº§n"
      ],
      [
        "Ġl",
        "áºŃp"
      ],
      [
        "Ġng",
        "á»¯"
      ],
      [
        "Ġchi",
        "a"
      ],
      [
        "Ġt",
        "uy"
      ],
      [
        "Ġt",
        "áº¡i"
      ],
      [
        "Ġk",
        "Ã©"
      ],
      [
        "Ġm",
        "ang"
      ],
      [
        "Ġcá»",
        "©"
      ],
      [
        "áº¯",
        "n"
      ],
      [
        "áº¯",
        "p"
      ],
      [
        "Ġx",
        "em"
      ],
      [
        "Ã²",
        "a"
      ],
      [
        "Ġho",
        "Ãłn"
      ],
      [
        "ĠchÃŃ",
        "nh"
      ],
      [
        "Ġc",
        "áº£i"
      ],
      [
        "ĠÄĳ",
        "Ã¡nh"
      ],
      [
        "Ġb",
        "Ã¹"
      ],
      [
        "Ġb",
        "Ãły"
      ],
      [
        "Ġh",
        "Ã²a"
      ],
      [
        "Ġl",
        "a"
      ],
      [
        "Ġgi",
        "ao"
      ],
      [
        "Äĥ",
        "m"
      ],
      [
        "Ġl",
        "uyá»ĩn"
      ],
      [
        "Ġm",
        "uá»ĳ"
      ],
      [
        "Ġdáº¡",
        "ng"
      ],
      [
        "Ġgi",
        "Ã¡"
      ],
      [
        "Ġmuá»ĳ",
        "n"
      ],
      [
        "t",
        "e"
      ],
      [
        "Ġc",
        "Ã¡o"
      ],
      [
        "Ġkh",
        "Äĥn"
      ],
      [
        "Ġgiá»",
        "įng"
      ],
      [
        "Ġch",
        "ung"
      ],
      [
        "oo",
        "d"
      ],
      [
        "s",
        "m"
      ],
      [
        "Ġv",
        "Äĥn"
      ],
      [
        "Ġd",
        "Ãłi"
      ],
      [
        "Ġph",
        "ong"
      ],
      [
        "Ġmáº¡",
        "ng"
      ],
      [
        "Ġ",
        "Æ¡n"
      ],
      [
        "Ġc",
        "á»ĳ"
      ],
      [
        "Ġs",
        "ai"
      ],
      [
        "Ġkh",
        "iáº¿n"
      ],
      [
        "Ġchá»",
        "ĭ"
      ],
      [
        "Ġkháº£",
        "o"
      ],
      [
        "e",
        "a"
      ],
      [
        "Ġv",
        "iáº¿t"
      ],
      [
        "Ġnh",
        "Ã¬"
      ],
      [
        "Ã©",
        "p"
      ],
      [
        "Ġnh",
        "áºŃn"
      ],
      [
        "áº£",
        "ng"
      ],
      [
        "Ġng",
        "Ãłnh"
      ],
      [
        "Ġtá»",
        "ķ"
      ],
      [
        "ĠnhÃł",
        "m"
      ],
      [
        "ĠnhÃ¬",
        "n"
      ],
      [
        "ĠÄĳ",
        "ang"
      ],
      [
        "Ġg",
        "áº·p"
      ],
      [
        "Ġnh",
        "au"
      ],
      [
        "Ġb",
        "á»Ļ"
      ],
      [
        "Ġm",
        "áº¥t"
      ],
      [
        "Ġm",
        "ood"
      ],
      [
        "Ġtá»¥",
        "i"
      ],
      [
        "Ġmood",
        "le"
      ],
      [
        "Ġ",
        "f"
      ],
      [
        "Ł",
        "ng"
      ],
      [
        "Ġs",
        "áº¯p"
      ],
      [
        "Ġthá»",
        "©"
      ],
      [
        "Æ°á»",
        "Łng"
      ],
      [
        "Ã¡c",
        "h"
      ],
      [
        "Ġng",
        "Ãły"
      ],
      [
        "sm",
        "ile"
      ],
      [
        "a",
        "r"
      ],
      [
        "Ġy",
        "áº¿u"
      ],
      [
        "e",
        "b"
      ],
      [
        "i",
        "c"
      ],
      [
        "r",
        "o"
      ],
      [
        "Ġmá»",
        "¥c"
      ],
      [
        "áº",
        "¹"
      ],
      [
        "Ġh",
        "iá»ģn"
      ],
      [
        "Ġb",
        "Ã¡"
      ],
      [
        "Ġng",
        "á»ĵi"
      ],
      [
        "á»Ļ",
        "c"
      ],
      [
        "Ġbá»",
        "ı"
      ],
      [
        "Ġkho",
        "a"
      ],
      [
        "n",
        "e"
      ],
      [
        "Ġd",
        "anh"
      ],
      [
        "Ġd",
        "Ã¹ng"
      ],
      [
        "Ġnh",
        "iÃªn"
      ],
      [
        "Ġhá»",
        "į"
      ],
      [
        "i",
        "Ãªm"
      ],
      [
        "i",
        "Ãªu"
      ],
      [
        "áº¿",
        "p"
      ],
      [
        "Ġchá»",
        "Ĺ"
      ],
      [
        "Ġx",
        "Ã¡c"
      ],
      [
        "Ġx",
        "áº¿p"
      ],
      [
        "á»ĳ",
        "i"
      ],
      [
        "Ġlá»Ľ",
        "n"
      ],
      [
        "Ġchá»",
        "©"
      ],
      [
        "áº",
        "³"
      ],
      [
        "Ġv",
        "Ãłi"
      ],
      [
        "Ġs",
        "ao"
      ],
      [
        "Ġm",
        "inh"
      ],
      [
        "Ġn",
        "Äĥm"
      ],
      [
        "Ġngh",
        "iÃªm"
      ],
      [
        "uyá»ĩ",
        "t"
      ],
      [
        "Ġh",
        "áº¡n"
      ],
      [
        "ĠÄĳ",
        "áº·c"
      ],
      [
        "Ġb",
        "Ãªn"
      ],
      [
        "Ġkh",
        "ÃŃ"
      ],
      [
        "Æ¡",
        "i"
      ],
      [
        "á»Ļ",
        "n"
      ],
      [
        "Ġbá»",
        "įn"
      ],
      [
        "Ġnghá»",
        "ĭ"
      ],
      [
        "Ġchá»ĭ",
        "u"
      ],
      [
        "Ġt",
        "uyá»ĩt"
      ],
      [
        "Ġc",
        "Æ°á»Ŀng"
      ],
      [
        "Ġc",
        "Ãłng"
      ],
      [
        "Ãł",
        "o"
      ],
      [
        "ĠÄĳ",
        "áº·t"
      ],
      [
        "ĠhÆ°á»Ľ",
        "c"
      ],
      [
        "Ġbáº£",
        "ng"
      ],
      [
        "Ġto",
        "Ã¡n"
      ],
      [
        "Ġla",
        "b"
      ],
      [
        "Ġt",
        "Æ°"
      ],
      [
        "Ġt",
        "áº¥t"
      ],
      [
        "Ġv",
        "áºŃn"
      ],
      [
        "ĠÄĳ",
        "Ã¡o"
      ],
      [
        "Ġk",
        "iá»ĩn"
      ],
      [
        "Ġch",
        "Ãºt"
      ],
      [
        "Ġsá»",
        "Ł"
      ],
      [
        "Ġná»Ļ",
        "p"
      ],
      [
        "Ġs",
        "á»Ľ"
      ],
      [
        "Ġb",
        "iá»ĩt"
      ],
      [
        "ĠnÃ³",
        "ng"
      ],
      [
        "Ġsá»Ľ",
        "m"
      ],
      [
        "Ġv",
        "i"
      ],
      [
        "Ġgiáº£",
        "m"
      ],
      [
        "Ġtr",
        "Ã¡nh"
      ],
      [
        "Ġvá»",
        "įng"
      ],
      [
        "ĠkÃ©",
        "m"
      ],
      [
        "ĠbÃ¡",
        "m"
      ],
      [
        "áº³",
        "ng"
      ],
      [
        "Ġl",
        "áº¥y"
      ],
      [
        "Ġw",
        "eb"
      ],
      [
        "Ġ",
        "4"
      ],
      [
        "Ġ",
        "Ã¢m"
      ],
      [
        "Ġm",
        "á»ģ"
      ],
      [
        "Ġlá»",
        "Ĺi"
      ],
      [
        "Ġnghiá»ĩ",
        "p"
      ],
      [
        "Ġmá»ģ",
        "m"
      ],
      [
        "£",
        "i"
      ],
      [
        "Ġc",
        "Æ°Æ¡ng"
      ],
      [
        "Ġs",
        "Ã¡ng"
      ],
      [
        "Ġm",
        "áº·c"
      ],
      [
        "Ġtr",
        "ao"
      ],
      [
        "á»Ľ",
        "t"
      ],
      [
        "Ġx",
        "in"
      ],
      [
        "ĠcÅ",
        "©"
      ],
      [
        "li",
        "ne"
      ],
      [
        "Ġcuá»ĳ",
        "n"
      ],
      [
        "Ġng",
        "áº¯n"
      ],
      [
        "Ġtá»",
        "¥c"
      ],
      [
        "Ġtrá»",
        "±c"
      ],
      [
        "i",
        "Ãª"
      ],
      [
        "ĠÄĳ",
        "Ã¢y"
      ],
      [
        "Ġg",
        "h"
      ],
      [
        "Ġd",
        "ea"
      ],
      [
        "Ġl",
        "Ã¢u"
      ],
      [
        "Ġch",
        "Ã©p"
      ],
      [
        "Ġm",
        "áº·t"
      ],
      [
        "Ġhá»",
        "Ļ"
      ],
      [
        "Ġgi",
        "Ã¡c"
      ],
      [
        "Ġx",
        "ong"
      ],
      [
        "Ġná»",
        "ķi"
      ],
      [
        "d",
        "line"
      ],
      [
        "e",
        "n"
      ],
      [
        "Ġb",
        "ao"
      ],
      [
        "Ġng",
        "ay"
      ],
      [
        "ĠrÃ",
        "¨"
      ],
      [
        "Ġvá»",
        "ĭ"
      ],
      [
        "Ġdea",
        "dline"
      ],
      [
        "Ġ",
        "-"
      ],
      [
        "Ġ",
        "5"
      ],
      [
        "Ġc",
        "áºŃn"
      ],
      [
        "Ġn",
        "áº·"
      ],
      [
        "Ġhá»į",
        "a"
      ],
      [
        "Ġhá»Ļ",
        "i"
      ],
      [
        "Ġnáº·",
        "ng"
      ],
      [
        "Ġ",
        "ai"
      ],
      [
        "Ġt",
        "iáº¿n"
      ],
      [
        "Ġt",
        "Ã´i"
      ],
      [
        "Ġv",
        "Ã´"
      ],
      [
        "Ġs",
        "em"
      ],
      [
        "Ġmá»",
        "Ŀ"
      ],
      [
        "Ġnghá»",
        "ĩ"
      ],
      [
        "Ġlu",
        "áºŃn"
      ],
      [
        "Ã©",
        "t"
      ],
      [
        "iÃª",
        "ng"
      ],
      [
        "Ġv",
        "iá»ĩt"
      ],
      [
        "Ġl",
        "an"
      ],
      [
        "Ġs",
        "ung"
      ],
      [
        "áº§",
        "m"
      ],
      [
        "áº£",
        "n"
      ],
      [
        "Ġq",
        "uy"
      ],
      [
        "Ġchá»",
        "©c"
      ],
      [
        "Ġsá»",
        "©c"
      ],
      [
        "áº·",
        "n"
      ],
      [
        "in",
        "ar"
      ],
      [
        "Ġphá»",
        "¥c"
      ],
      [
        "Ġcolon",
        "smile"
      ],
      [
        "Ġcá»©",
        "u"
      ],
      [
        "Ġsem",
        "inar"
      ],
      [
        "Ġnh",
        "á»Ľ"
      ],
      [
        "Ġl",
        "áº¡"
      ],
      [
        "Ġtr",
        "Ã²"
      ],
      [
        "áº£",
        "o"
      ],
      [
        "Ġgiá»",
        "ıi"
      ],
      [
        "Ġká»",
        "ĥ"
      ],
      [
        "Ġmá»",
        "©c"
      ],
      [
        "u",
        "r"
      ],
      [
        "Ġnh",
        "áº¯c"
      ],
      [
        "áº¥",
        "u"
      ],
      [
        "Ġr",
        "iÃªng"
      ],
      [
        "Ġq",
        "uyáº¿t"
      ],
      [
        "Ġngh",
        "iÃªn"
      ],
      [
        "áº«",
        "u"
      ],
      [
        "Ġv",
        "áºŃt"
      ],
      [
        "Ġh",
        "áº§u"
      ],
      [
        "Ġd",
        "Ãłng"
      ],
      [
        "Ġs",
        "Æ¡"
      ],
      [
        "Ġs",
        "Ã´i"
      ],
      [
        "Ġm",
        "áº¥y"
      ],
      [
        "Ġm",
        "áº«u"
      ],
      [
        "iá»ĩ",
        "m"
      ],
      [
        "áº£",
        "nh"
      ],
      [
        "Ġph",
        "Ãºt"
      ],
      [
        "Ġvá»",
        "Ŀi"
      ],
      [
        "a",
        "c"
      ],
      [
        "e",
        "r"
      ],
      [
        "Ľ",
        "i"
      ],
      [
        "Ġs",
        "áº»"
      ],
      [
        "Ġkh",
        "áº¯c"
      ],
      [
        "Ġm",
        "an"
      ],
      [
        "Ġqu",
        "áº¡t"
      ],
      [
        "Ġ2",
        "0"
      ],
      [
        "s",
        "e"
      ],
      [
        "«",
        "ng"
      ],
      [
        "Ġ",
        "áº£nh"
      ],
      [
        "Ń",
        "i"
      ],
      [
        "Ã¡",
        "i"
      ],
      [
        "Ġm",
        "ic"
      ],
      [
        "iáº¿",
        "m"
      ],
      [
        "Ġx",
        "Ã©t"
      ],
      [
        "Ġthu",
        "áºŃt"
      ],
      [
        "Ġmic",
        "ro"
      ],
      [
        "Ġt",
        "Ãºc"
      ],
      [
        "Ġt",
        "Æ°á»£ng"
      ],
      [
        "Ġh",
        "y"
      ],
      [
        "Ġh",
        "ai"
      ],
      [
        "ĠÄĳ",
        "Ãło"
      ],
      [
        "Ġch",
        "áº¿"
      ],
      [
        "Ġb",
        "áºŃn"
      ],
      [
        "Ġm",
        "u"
      ],
      [
        "iá»ĥ",
        "n"
      ],
      [
        "Ġgiá»",
        "Ľi"
      ],
      [
        "ĠkhÃ³",
        "a"
      ],
      [
        "ĠrÃ¨",
        "n"
      ],
      [
        "s",
        "i"
      ],
      [
        "Ġch",
        "áº¯c"
      ],
      [
        "ai",
        "l"
      ],
      [
        "Ġgá»",
        "įn"
      ],
      [
        "Ġs",
        "ong"
      ],
      [
        "Ġb",
        "áº¥t"
      ],
      [
        "Ġkho",
        "áº£ng"
      ],
      [
        "i",
        "ng"
      ],
      [
        "µ",
        "n"
      ],
      [
        "ı",
        "ng"
      ],
      [
        "áº",
        "µn"
      ],
      [
        "Ġt",
        "iÃªu"
      ],
      [
        "Ġng",
        "Ã´n"
      ],
      [
        "Ġgi",
        "a"
      ],
      [
        "Ġá»",
        "ķ"
      ],
      [
        "Ġsá»ĳ",
        "ng"
      ],
      [
        "Ġgá»",
        "Ńi"
      ],
      [
        "Ġtá»¥",
        "y"
      ],
      [
        "Ġmu",
        "á»Ļn"
      ],
      [
        "i",
        "t"
      ],
      [
        "Ġ",
        "u"
      ],
      [
        "Ł",
        "i"
      ],
      [
        "Ń",
        "a"
      ],
      [
        "Ġth",
        "Ã´i"
      ],
      [
        "ĠÄĳ",
        "áº¡i"
      ],
      [
        "Ġs",
        "áºµn"
      ],
      [
        "Ġngh",
        "á»ģ"
      ],
      [
        "Ġtá»ĳ",
        "n"
      ],
      [
        "am",
        "e"
      ],
      [
        "Ġlo",
        "a"
      ],
      [
        "a",
        "l"
      ],
      [
        "Ã",
        "µ"
      ],
      [
        "Ġt",
        "áº£i"
      ],
      [
        "Ġc",
        "u"
      ],
      [
        "Ġth",
        "iá»ĩu"
      ],
      [
        "Ġth",
        "áº£o"
      ],
      [
        "ĠÄĳ",
        "iá»ĩn"
      ],
      [
        "Ġd",
        "Ãłnh"
      ],
      [
        "Ġd",
        "iá»ħn"
      ],
      [
        "Ġnh",
        "iá»ĩm"
      ],
      [
        "Ġs",
        "Ã¡ch"
      ],
      [
        "Ġb",
        "iá»ĥu"
      ],
      [
        "Ġkh",
        "Ã´"
      ],
      [
        "Ġhá»",
        "ĵ"
      ],
      [
        "Ġtr",
        "Ã¡ch"
      ],
      [
        "Ġph",
        "ÃŃ"
      ],
      [
        "Ġquáº£",
        "n"
      ],
      [
        "¯",
        "u"
      ],
      [
        "Ã",
        "¨"
      ],
      [
        "ĥ",
        "n"
      ],
      [
        "Ġv",
        "á»¯ng"
      ],
      [
        "Ġth",
        "Ãºc"
      ],
      [
        "Ġh",
        "i"
      ],
      [
        "Ġh",
        "Æ°"
      ],
      [
        "Ġh",
        "áº¥p"
      ],
      [
        "ĠÄĳ",
        "Æ¡n"
      ],
      [
        "Ġg",
        "Ã³"
      ],
      [
        "áº¡",
        "y"
      ],
      [
        "áº¡",
        "ng"
      ],
      [
        "Ġb",
        "á»ĳ"
      ],
      [
        "Ġb",
        "á»Ľt"
      ],
      [
        "Ġkh",
        "á»"
      ],
      [
        "Ġm",
        "Æ¡"
      ],
      [
        "Ġhá»",
        "¯u"
      ],
      [
        "Ġcá»",
        "Ļ"
      ],
      [
        "Ġchá»",
        "¯"
      ],
      [
        "Ġ1",
        "0"
      ],
      [
        "áº¹",
        "p"
      ],
      [
        "Ġ",
        "?"
      ],
      [
        "Ġt",
        "inh"
      ],
      [
        "Ġd",
        "Æ°"
      ],
      [
        "Ġch",
        "Æ¡i"
      ],
      [
        "Ġtr",
        "Ã¹ng"
      ],
      [
        "Ġtr",
        "iá»ĥn"
      ],
      [
        "Ġco",
        "ur"
      ],
      [
        "Ġweb",
        "si"
      ],
      [
        "Ãµ",
        "i"
      ],
      [
        "Ġcour",
        "se"
      ],
      [
        "Ġwebsi",
        "te"
      ],
      [
        "Ġth",
        "Ã¡i"
      ],
      [
        "Ġh",
        "Ã´"
      ],
      [
        "Ġh",
        "Æ°á»Łng"
      ],
      [
        "ĠÄĳ",
        "Äĥng"
      ],
      [
        "Ġnh",
        "áºŃp"
      ],
      [
        "Ġl",
        "áº¯ng"
      ],
      [
        "Ġch",
        "áº¡y"
      ],
      [
        "Ġm",
        "ail"
      ],
      [
        "Ġgiáº£",
        "n"
      ],
      [
        "Ġtr",
        "áº¡ng"
      ],
      [
        "Ġn",
        "ay"
      ],
      [
        "Ã³",
        "t"
      ],
      [
        "ĠÄĳá»",
        "©ng"
      ],
      [
        "Ġchá»",
        "¯a"
      ],
      [
        "Ġdo",
        "t"
      ],
      [
        "Ġtá»ķ",
        "ng"
      ],
      [
        "Ġgh",
        "i"
      ],
      [
        "Ġcá»Ļ",
        "ng"
      ],
      [
        "Ġc",
        "áº¥u"
      ],
      [
        "Ġg",
        "áº¯ng"
      ],
      [
        "Ġg",
        "ame"
      ],
      [
        "Ġs",
        "Ã³t"
      ],
      [
        "Ġgiáº",
        "¥c"
      ],
      [
        "Ġdá»",
        "¯"
      ],
      [
        "Ġx",
        "Ãºc"
      ],
      [
        "Ġchá»ī",
        "nh"
      ],
      [
        "Ġ3",
        "0"
      ],
      [
        "ĠkÃ©",
        "o"
      ],
      [
        "Ġf",
        "r"
      ],
      [
        "u",
        "áº¥t"
      ],
      [
        "Ġ",
        "o"
      ],
      [
        "Ġv",
        "áº¯ng"
      ],
      [
        "Ġth",
        "áº³ng"
      ],
      [
        "ĠÄĳ",
        "Æ°á»Ŀng"
      ],
      [
        "ĠÄĳ",
        "áº¹p"
      ],
      [
        "Ġd",
        "Ãµi"
      ],
      [
        "Ġk",
        "iá»ĥu"
      ],
      [
        "Ġl",
        "Ã´i"
      ],
      [
        "áº¡",
        "nh"
      ],
      [
        "áº¡",
        "ch"
      ],
      [
        "Ġb",
        "Ãłn"
      ],
      [
        "Ġm",
        "Ã´"
      ],
      [
        "Ġchá»",
        "įn"
      ],
      [
        "Ġgiá»",
        "ĳng"
      ],
      [
        "Ġx",
        "a"
      ],
      [
        "Ġtrá»",
        "Ł"
      ],
      [
        "Ġvá»",
        "¥"
      ],
      [
        "ĠnghÄ©",
        "a"
      ],
      [
        "Ġu",
        "p"
      ],
      [
        "Ġcu",
        "á»Ļc"
      ],
      [
        "ĠhÃ´",
        "m"
      ],
      [
        "s",
        "u"
      ],
      [
        "ĠÄĳ",
        "Ã¢u"
      ],
      [
        "Ġd",
        "uy"
      ],
      [
        "Ġd",
        "em"
      ],
      [
        "Ġk",
        "áº¿"
      ],
      [
        "Ġk",
        "áº½"
      ],
      [
        "Ġnh",
        "Ã¢n"
      ],
      [
        "Ġl",
        "áº«n"
      ],
      [
        "Ġs",
        "Ãłi"
      ],
      [
        "Ġs",
        "Ãłng"
      ],
      [
        "Ġch",
        "áº³ng"
      ],
      [
        "Ġhá»",
        "ıng"
      ],
      [
        "Ġph",
        "Ãº"
      ],
      [
        "Ġcá»",
        "©ng"
      ],
      [
        "Ġcá»§",
        "ng"
      ],
      [
        "ĠquÃ¡",
        "t"
      ],
      [
        "Ġbá»",
        "¥"
      ],
      [
        "Ġtrá»",
        "«"
      ],
      [
        "Ġvi",
        "su"
      ],
      [
        "ĠgÃ³",
        "p"
      ],
      [
        "ĠdÆ°",
        "á»Ľi"
      ],
      [
        "Ġdem",
        "o"
      ],
      [
        "Ġvisu",
        "al"
      ],
      [
        "i",
        "on"
      ],
      [
        "t",
        "ion"
      ],
      [
        "Ġt",
        "Æ°á»Łng"
      ],
      [
        "Ġth",
        "anh"
      ],
      [
        "ĠÄĳ",
        "ÃŃch"
      ],
      [
        "Ġk",
        "iáº¿m"
      ],
      [
        "Æ°",
        "u"
      ],
      [
        "Ġn",
        "á»ģn"
      ],
      [
        "Ġn",
        "Ãªu"
      ],
      [
        "Ã³",
        "ng"
      ],
      [
        "Ġdá»",
        "±"
      ],
      [
        "Ġdá»",
        "ĭch"
      ],
      [
        "Æ°á»",
        "¡"
      ],
      [
        "Ġbu",
        "á»Ļc"
      ],
      [
        "uá»ĳ",
        "ng"
      ],
      [
        "e",
        "c"
      ],
      [
        "Ġ",
        "7"
      ],
      [
        "Ġth",
        "áº§n"
      ],
      [
        "Ġnh",
        "u"
      ],
      [
        "Ġl",
        "inh"
      ],
      [
        "Ġb",
        "Ã¬nh"
      ],
      [
        "Ġb",
        "Æ°á»Ľc"
      ],
      [
        "Ġkh",
        "an"
      ],
      [
        "Ġr",
        "áº±ng"
      ],
      [
        "de",
        "o"
      ],
      [
        "Ġdo",
        "anh"
      ],
      [
        "Ġvi",
        "deo"
      ],
      [
        "Ġláº¡",
        "c"
      ],
      [
        "3",
        "0"
      ],
      [
        "t",
        "o"
      ],
      [
        "Ġc",
        "Äĥn"
      ],
      [
        "Ġc",
        "áº¡nh"
      ],
      [
        "Ġs",
        "ang"
      ],
      [
        "Ġtr",
        "Ãºc"
      ],
      [
        "Ġng",
        "uyÃªn"
      ],
      [
        "Ġqu",
        "Ã½"
      ],
      [
        "Ã²",
        "i"
      ],
      [
        "Ġx",
        "á»"
      ],
      [
        "ac",
        "tion"
      ],
      [
        "Ġfr",
        "action"
      ],
      [
        "Æ°á»¡",
        "ng"
      ],
      [
        "Ġc",
        "Ãłi"
      ],
      [
        "ĠÄĳ",
        "Ã´ng"
      ],
      [
        "Ġd",
        "Ã²ng"
      ],
      [
        "Ġl",
        "Æ°á»¡ng"
      ],
      [
        "Ġhá»",
        "ģ"
      ],
      [
        "Ġtr",
        "áº»"
      ],
      [
        "Ġthá»",
        "¥"
      ],
      [
        "ĠÄĳá»",
        "«ng"
      ],
      [
        "Ġr",
        "á»Ľt"
      ],
      [
        "Ġx",
        "uá»ĳng"
      ],
      [
        "Ġlá»",
        "ĩ"
      ],
      [
        "uyá»",
        "ĥn"
      ],
      [
        "Ġmáº¡",
        "ch"
      ],
      [
        "Ġná»",
        "ķ"
      ],
      [
        "Ġá»ķ",
        "n"
      ],
      [
        "a",
        "d"
      ],
      [
        "¥",
        "y"
      ],
      [
        "Ġt",
        "áº£ng"
      ],
      [
        "Ġc",
        "áº·n"
      ],
      [
        "ĠÄĳ",
        "em"
      ],
      [
        "Ãª",
        "nh"
      ],
      [
        "Ġnh",
        "áº¹"
      ],
      [
        "Ġl",
        "Æ°u"
      ],
      [
        "Ġgiáº",
        "¥y"
      ],
      [
        "Ġp",
        "ro"
      ],
      [
        "Ġqu",
        "Ãªn"
      ],
      [
        "Ġqu",
        "en"
      ],
      [
        "Ġtá»ĳ",
        "c"
      ],
      [
        "Ġá»",
        "ĵn"
      ],
      [
        "Ã£",
        "y"
      ],
      [
        "Ġngo",
        "áº¡i"
      ],
      [
        "Ġnhá»",
        "Ŀ"
      ],
      [
        "Ġcourse",
        "s"
      ],
      [
        "Ġbá»¥",
        "i"
      ],
      [
        "1",
        "2"
      ],
      [
        "±",
        "m"
      ],
      [
        "Ġ",
        "i"
      ],
      [
        "áº",
        "±m"
      ],
      [
        "Ġh",
        "Ã³"
      ],
      [
        "ĠÄĳ",
        "Ã¡ng"
      ],
      [
        "Ġl",
        "ai"
      ],
      [
        "Ġl",
        "áº½"
      ],
      [
        "Ġs",
        "t"
      ],
      [
        "Ġch",
        "Ãºc"
      ],
      [
        "Ġch",
        "uyá»ĥn"
      ],
      [
        "Ġkh",
        "ÃŃch"
      ],
      [
        "Ġn",
        "áº£n"
      ],
      [
        "Ġph",
        "áº£n"
      ],
      [
        "uy",
        "áº¿n"
      ],
      [
        "Ġtá»",
        "ĩ"
      ],
      [
        "Ġsá»",
        "£"
      ],
      [
        "Ġx",
        "uáº¥t"
      ],
      [
        "Ġ1",
        "5"
      ],
      [
        "ĠcÃ¡",
        "m"
      ],
      [
        "Ġw",
        "i"
      ],
      [
        "Ġlo",
        "áº¡i"
      ],
      [
        "Ġla",
        "p"
      ],
      [
        "l",
        "o"
      ],
      [
        "Ġth",
        "Æ°a"
      ],
      [
        "ĠÄĳ",
        "o"
      ],
      [
        "Ġk",
        "Ã½"
      ],
      [
        "Ġch",
        "Ã©"
      ],
      [
        "Ġn",
        "Æ¡i"
      ],
      [
        "ĠÄĳá»",
        "Ŀi"
      ],
      [
        "Ġr",
        "á»ĳi"
      ],
      [
        "Ġdá»",
        "±ng"
      ],
      [
        "Ġcá»",
        "Łi"
      ],
      [
        "Ġchá»",
        "Ŀ"
      ],
      [
        "Ġtá»ĳ",
        "i"
      ],
      [
        "Æ°á»Ľ",
        "t"
      ],
      [
        "Ġx",
        "Ã¢y"
      ],
      [
        "ĠtÃŃ",
        "n"
      ],
      [
        "Ġso",
        "áº¡n"
      ],
      [
        "te",
        "r"
      ],
      [
        "Ġf",
        "ile"
      ],
      [
        "Ã¨",
        "m"
      ],
      [
        "Ġxá»",
        "Ń"
      ],
      [
        "1",
        "0"
      ],
      [
        "k",
        "ing"
      ],
      [
        "o",
        "r"
      ],
      [
        "p",
        "ea"
      ],
      [
        "ĩ",
        "t"
      ],
      [
        "Ġc",
        "Æ°á»Ŀi"
      ],
      [
        "Ġd",
        "áº·n"
      ],
      [
        "Ġk",
        "Ã¨m"
      ],
      [
        "Ġnh",
        "áº§m"
      ],
      [
        "Ġnh",
        "áº±m"
      ],
      [
        "Ġl",
        "áº·p"
      ],
      [
        "Ġl",
        "Æ°á»Ľt"
      ],
      [
        "Ġs",
        "pea"
      ],
      [
        "Ġch",
        "Ã³ng"
      ],
      [
        "Ġkh",
        "e"
      ],
      [
        "Ġtr",
        "ai"
      ],
      [
        "Ġn",
        "á»ĳi"
      ],
      [
        "Ġr",
        "á»"
      ],
      [
        "Ġr",
        "Ãºt"
      ],
      [
        "Ġtá»",
        "ī"
      ],
      [
        "Ġco",
        "n"
      ],
      [
        "ĠkhÃ¡c",
        "h"
      ],
      [
        "Ä©",
        "nh"
      ],
      [
        "Ġmáº¡",
        "nh"
      ],
      [
        "Ġná»",
        "Ńa"
      ],
      [
        "Ġcolon",
        "s"
      ],
      [
        "to",
        "p"
      ],
      [
        "Ġlap",
        "top"
      ],
      [
        "Ġspea",
        "king"
      ],
      [
        "1",
        "3"
      ],
      [
        "1",
        "5"
      ],
      [
        "d",
        "i"
      ],
      [
        "e",
        "s"
      ],
      [
        "u",
        "á»"
      ],
      [
        "v",
        "er"
      ],
      [
        "Ġ",
        "8"
      ],
      [
        "Ġ",
        "j"
      ],
      [
        "Ġ",
        "Ã¢n"
      ],
      [
        "Ġ",
        "in"
      ],
      [
        "Ġt",
        "a"
      ],
      [
        "Ġt",
        "Ãªn"
      ],
      [
        "Ġt",
        "iá»ĩn"
      ],
      [
        "Ġth",
        "ao"
      ],
      [
        "Ġnh",
        "iÃªu"
      ],
      [
        "Ġl",
        "á»ĳ"
      ],
      [
        "Ġl",
        "á»ģ"
      ],
      [
        "Ġs",
        "uy"
      ],
      [
        "Ġb",
        "an"
      ],
      [
        "Ġkh",
        "uyáº¿n"
      ],
      [
        "ĠÄĳá»",
        "£i"
      ],
      [
        "áº£",
        "y"
      ],
      [
        "Ġtrá»",
        "Ŀi"
      ],
      [
        "Ġmá»",
        "ĩt"
      ],
      [
        "Ġlá»",
        "£i"
      ],
      [
        "Ġthu",
        "á»Ļc"
      ],
      [
        "ĠÄĳÃ³",
        "ng"
      ],
      [
        "Ġkho",
        "Ã¡"
      ],
      [
        "Ġgá»",
        "£i"
      ],
      [
        "Ġphá»",
        "¥"
      ],
      [
        "Ġphá»",
        "©c"
      ],
      [
        "Ġ20",
        "0"
      ],
      [
        "Ġtrá»«",
        "u"
      ],
      [
        "Ġcolons",
        "ad"
      ],
      [
        "1",
        "9"
      ],
      [
        "a",
        "t"
      ],
      [
        "f",
        "i"
      ],
      [
        "v",
        "e"
      ],
      [
        "±",
        "a"
      ],
      [
        "Ġt",
        "iÃªn"
      ],
      [
        "Ġt",
        "iá»ģn"
      ],
      [
        "Ġc",
        "Ã¢n"
      ],
      [
        "Ġc",
        "áº¯m"
      ],
      [
        "Ġth",
        "Ã¡ng"
      ],
      [
        "Ġh",
        "Ãłng"
      ],
      [
        "Ġk",
        "Ãªnh"
      ],
      [
        "Ġs",
        "Æ°"
      ],
      [
        "áº¡",
        "m"
      ],
      [
        "Ġch",
        "iá»ģu"
      ],
      [
        "Ġch",
        "Äĥm"
      ],
      [
        "Ġkh",
        "u"
      ],
      [
        "Ġtr",
        "áº·c"
      ],
      [
        "Ġn",
        "Æ°á»Ľc"
      ],
      [
        "Ġthá»",
        "Ń"
      ],
      [
        "Ġx",
        "áº£y"
      ],
      [
        "Ġtrá»",
        "¥c"
      ],
      [
        "ĠÄĳá»Ļ",
        "t"
      ],
      [
        "Ġho",
        "áº¡ch"
      ],
      [
        "Ġvá»",
        "±ng"
      ],
      [
        "Ġcolonsmile",
        "smile"
      ],
      [
        "ĠhÃ³",
        "a"
      ],
      [
        "Ġst",
        "u"
      ],
      [
        "Ġwi",
        "fi"
      ],
      [
        "ĠÄĳo",
        "áº¡n"
      ],
      [
        "di",
        "o"
      ],
      [
        "2",
        "3"
      ],
      [
        "2",
        "4"
      ],
      [
        "2",
        "5"
      ],
      [
        "2",
        "7"
      ],
      [
        "g",
        "le"
      ],
      [
        "g",
        "ic"
      ],
      [
        "n",
        "ing"
      ],
      [
        "o",
        "s"
      ],
      [
        "Ġ",
        "9"
      ],
      [
        "ı",
        "e"
      ],
      [
        "Ġt",
        "áº£"
      ],
      [
        "Ġt",
        "ay"
      ],
      [
        "Ġt",
        "áº¯c"
      ],
      [
        "Ġt",
        "áº§m"
      ],
      [
        "Ġc",
        "Äĥng"
      ],
      [
        "Ġh",
        "Äĥng"
      ],
      [
        "Ġg",
        "oo"
      ],
      [
        "Ġl",
        "áº¯p"
      ],
      [
        "Ġl",
        "Ä©nh"
      ],
      [
        "Ġb",
        "iá»ĩn"
      ],
      [
        "Ġhá»",
        "ĵi"
      ],
      [
        "Ġtr",
        "ÃŃ"
      ],
      [
        "Ġtr",
        "Æ°a"
      ],
      [
        "Ã³",
        "c"
      ],
      [
        "Ġdá»",
        "ĵi"
      ],
      [
        "Ġph",
        "áº¥n"
      ],
      [
        "Ġph",
        "Ã©p"
      ],
      [
        "Ġcá»",
        "Ńa"
      ],
      [
        "Ġchá»",
        "©ng"
      ],
      [
        "Ġx",
        "Ã£"
      ],
      [
        "ĠmÃł",
        "n"
      ],
      [
        "Ġho",
        "Ãł"
      ],
      [
        "Ġtáº¡",
        "p"
      ],
      [
        "ĠkhÃ¡",
        "i"
      ],
      [
        "Ġco",
        "i"
      ],
      [
        "Ġtho",
        "áº¡i"
      ],
      [
        "Ġnhá»",
        "Ł"
      ],
      [
        "dot",
        "v"
      ],
      [
        "Ġphá»",
        "ķ"
      ],
      [
        "Ġlo",
        "gic"
      ],
      [
        "ne",
        "t"
      ],
      [
        "Ġ5",
        "0"
      ],
      [
        "Ġkhá»",
        "ıe"
      ],
      [
        "Ġo",
        "k"
      ],
      [
        "Ġstu",
        "dio"
      ],
      [
        "Ġgoo",
        "gle"
      ],
      [
        "1",
        "7"
      ],
      [
        "2",
        "0"
      ],
      [
        "a",
        "v"
      ],
      [
        "h",
        "ar"
      ],
      [
        "p",
        "y"
      ],
      [
        "u",
        "s"
      ],
      [
        "u",
        "Ã´ng"
      ],
      [
        "Ġt",
        "y"
      ],
      [
        "Ġt",
        "Ã¢n"
      ],
      [
        "Ġt",
        "Ã³m"
      ],
      [
        "Ġd",
        "a"
      ],
      [
        "Ġd",
        "i"
      ],
      [
        "Ġk",
        "it"
      ],
      [
        "Ġl",
        "i"
      ],
      [
        "áº¡",
        "c"
      ],
      [
        "Ġch",
        "áº£"
      ],
      [
        "Ġb",
        "Ã³"
      ],
      [
        "Ġkh",
        "áº¯t"
      ],
      [
        "Ġm",
        "Ã´i"
      ],
      [
        "Ġtr",
        "Æ°á»Łng"
      ],
      [
        "Ġph",
        "áº¡m"
      ],
      [
        "Ġng",
        "uá»"
      ],
      [
        "Ġtrá»",
        "ĭ"
      ],
      [
        "Ġmá»",
        "ī"
      ],
      [
        "Ã£",
        "ng"
      ],
      [
        "Ġco",
        "py"
      ],
      [
        "oo",
        "k"
      ],
      [
        "Ġw",
        "in"
      ],
      [
        "Ġcolon",
        "c"
      ],
      [
        "ec",
        "t"
      ],
      [
        "Ġnguá»",
        "ĵn"
      ],
      [
        "1",
        "6"
      ],
      [
        "2",
        "9"
      ],
      [
        "a",
        "s"
      ],
      [
        "t",
        "em"
      ],
      [
        "Ġ",
        "6"
      ],
      [
        "Ġ",
        "e"
      ],
      [
        "ī",
        "nh"
      ],
      [
        "Ġth",
        "Æ°"
      ],
      [
        "Ġth",
        "ÃŃ"
      ],
      [
        "Ġh",
        "uy"
      ],
      [
        "Ġh",
        "Ã£y"
      ],
      [
        "ĠÄĳ",
        "Ãłn"
      ],
      [
        "ĠÄĳ",
        "Ã²i"
      ],
      [
        "Ġk",
        "iÃªn"
      ],
      [
        "Ġk",
        "ÃŃch"
      ],
      [
        "Ġk",
        "Ãªu"
      ],
      [
        "Ġnh",
        "á»Ļn"
      ],
      [
        "Ġl",
        "á»Ļn"
      ],
      [
        "Ġs",
        "áº¯c"
      ],
      [
        "Ġch",
        "e"
      ],
      [
        "Ġch",
        "Ãª"
      ],
      [
        "Ġb",
        "iáº¿n"
      ],
      [
        "Æ°",
        "ng"
      ],
      [
        "Ġm",
        "Ã³c"
      ],
      [
        "Ġtr",
        "áº£i"
      ],
      [
        "Ġtr",
        "áº¯c"
      ],
      [
        "áºŃ",
        "u"
      ],
      [
        "Ġx",
        "ung"
      ],
      [
        "Ġx",
        "en"
      ],
      [
        "Ġbá»",
        "©c"
      ],
      [
        "Ġbá»",
        "Łi"
      ],
      [
        "Ġmá»",
        "Ŀi"
      ],
      [
        "Ġmá»",
        "ıi"
      ],
      [
        "Ġthu",
        "áºŃn"
      ],
      [
        "uá»ĳ",
        "t"
      ],
      [
        "ĠnhÃł",
        "ng"
      ],
      [
        "Ġvá»",
        "±c"
      ],
      [
        "on",
        "tem"
      ],
      [
        "Ġtho",
        "áº£ng"
      ],
      [
        "Ġgá»",
        "įi"
      ],
      [
        "eb",
        "ook"
      ],
      [
        "ĠbÃ¡",
        "u"
      ],
      [
        "ter",
        "net"
      ],
      [
        "Ġin",
        "ternet"
      ],
      [
        "Ġkhu",
        "Ã´n"
      ],
      [
        "Ġcolonc",
        "ontem"
      ],
      [
        "Ġcoloncontem",
        "n"
      ],
      [
        "1",
        "4"
      ],
      [
        "2",
        "6"
      ],
      [
        "2",
        "8"
      ],
      [
        "i",
        "m"
      ],
      [
        "j",
        "ect"
      ],
      [
        "o",
        "de"
      ],
      [
        "u",
        "t"
      ],
      [
        "Ġt",
        "Ã²i"
      ],
      [
        "Ġv",
        "iá»ĩn"
      ],
      [
        "Ġv",
        "dotv"
      ],
      [
        "Ġth",
        "áº¥p"
      ],
      [
        "Ġh",
        "a"
      ],
      [
        "ĠÄ",
        "ĥn"
      ],
      [
        "Ġg",
        "áº¯t"
      ],
      [
        "Ġg",
        "áº¯n"
      ],
      [
        "Ġd",
        "Ã£y"
      ],
      [
        "Ġl",
        "iá»ģn"
      ],
      [
        "Ġl",
        "Ã£ng"
      ],
      [
        "Ã¡",
        "m"
      ],
      [
        "Ġs",
        "i"
      ],
      [
        "Ġs",
        "iÃªu"
      ],
      [
        "Ġs",
        "uÃ´ng"
      ],
      [
        "Ġs",
        "uá»ĳt"
      ],
      [
        "Ġch",
        "iáº¿m"
      ],
      [
        "Ġb",
        "á»¯a"
      ],
      [
        "Ġkh",
        "ai"
      ],
      [
        "Ġkh",
        "á»ĳi"
      ],
      [
        "Ġm",
        "ay"
      ],
      [
        "Ġtr",
        "anh"
      ],
      [
        "Ġtr",
        "au"
      ],
      [
        "Ġn",
        "á»¯"
      ],
      [
        "Ġthá»",
        "īnh"
      ],
      [
        "ĠtáºŃ",
        "m"
      ],
      [
        "Ġp",
        "os"
      ],
      [
        "ÃŃ",
        "u"
      ],
      [
        "á»ĳ",
        "c"
      ],
      [
        "Ġtá»",
        "©c"
      ],
      [
        "Ġx",
        "inh"
      ],
      [
        "Ġx",
        "ÃŃu"
      ],
      [
        "iá»ģ",
        "m"
      ],
      [
        "Ġw",
        "ec"
      ],
      [
        "Ġf",
        "ac"
      ],
      [
        "Ġgh",
        "áº¿"
      ],
      [
        "ĠphÃŃ",
        "a"
      ],
      [
        "Ġdá»±",
        "a"
      ],
      [
        "Ġpro",
        "ject"
      ],
      [
        "ĠchÃ©",
        "o"
      ],
      [
        "Ġrá»",
        "Ŀi"
      ],
      [
        "Ġwec",
        "ode"
      ],
      [
        "Ġfac",
        "ebook"
      ],
      [
        "1",
        "8"
      ],
      [
        "i",
        "a"
      ],
      [
        "i",
        "g"
      ],
      [
        "q",
        "l"
      ],
      [
        "s",
        "te"
      ],
      [
        "Ġ",
        "Ã¡nh"
      ],
      [
        "Ġ",
        "it"
      ],
      [
        "Ġt",
        "Ã¹"
      ],
      [
        "Ġv",
        "Ã²ng"
      ],
      [
        "Ġth",
        "Ã¹"
      ],
      [
        "Ġg",
        "Ã²"
      ],
      [
        "Ġd",
        "Æ°á»Ŀng"
      ],
      [
        "Ġk",
        "ÃŃ"
      ],
      [
        "Ġs",
        "er"
      ],
      [
        "Ġs",
        "uáº¥t"
      ],
      [
        "Ġs",
        "áº¡ch"
      ],
      [
        "Ġs",
        "ql"
      ],
      [
        "Ġch",
        "Ã¢n"
      ],
      [
        "Ġch",
        "áº¯n"
      ],
      [
        "Ġm",
        "Ãª"
      ],
      [
        "Ġm",
        "áº»"
      ],
      [
        "Ġm",
        "Ã£"
      ],
      [
        "Ġtr",
        "Ã¬"
      ],
      [
        "Ġtr",
        "á»ĳ"
      ],
      [
        "Ġtr",
        "áº§m"
      ],
      [
        "Ġn",
        "á»ģ"
      ],
      [
        "Ġthá»",
        "§"
      ],
      [
        "Ġcá»",
        "Ń"
      ],
      [
        "Æ°á»£",
        "t"
      ],
      [
        "an",
        "d"
      ],
      [
        "Ġtá»",
        "Ń"
      ],
      [
        "Ġlá»",
        "±a"
      ],
      [
        "Ġchu",
        "á»Ļt"
      ],
      [
        "áº©",
        "y"
      ],
      [
        "Ġphá»",
        "ıng"
      ],
      [
        "Ġcolon",
        "lo"
      ],
      [
        "Ġhá»į",
        "p"
      ],
      [
        "en",
        "t"
      ],
      [
        "ĠrÃ¨",
        "m"
      ],
      [
        "Ġlá»ĩ",
        "ch"
      ],
      [
        "ĠchÃ©",
        "m"
      ],
      [
        "Ġj",
        "av"
      ],
      [
        "Ġda",
        "a"
      ],
      [
        "Ġtrá»ĳ",
        "ng"
      ],
      [
        "Ġcolonlo",
        "ve"
      ],
      [
        "Ġjav",
        "a"
      ],
      [
        "1",
        "1"
      ],
      [
        "a",
        "te"
      ],
      [
        "c",
        "e"
      ],
      [
        "d",
        "u"
      ],
      [
        "e",
        "ic"
      ],
      [
        "m",
        "l"
      ],
      [
        "r",
        "i"
      ],
      [
        "r",
        "es"
      ],
      [
        "©",
        "a"
      ],
      [
        "Ġ",
        "Ãło"
      ],
      [
        "ĵ",
        "ng"
      ],
      [
        "Ġt",
        "e"
      ],
      [
        "Ġc",
        "s"
      ],
      [
        "Ġc",
        "Ãºp"
      ],
      [
        "Ġv",
        "áº½"
      ],
      [
        "Ġv",
        "er"
      ],
      [
        "Ġth",
        "áº¥t"
      ],
      [
        "Ġth",
        "áºŃm"
      ],
      [
        "Ġh",
        "t"
      ],
      [
        "Ġh",
        "áº±ng"
      ],
      [
        "Ġh",
        "am"
      ],
      [
        "Ġh",
        "áº£o"
      ],
      [
        "Ãł",
        "m"
      ],
      [
        "ĠÄĳ",
        "am"
      ],
      [
        "ĠÄĳ",
        "áº·n"
      ],
      [
        "ĠÄĳ",
        "áºŃu"
      ],
      [
        "ĠÄĳ",
        "áº©y"
      ],
      [
        "Ġd",
        "áº§n"
      ],
      [
        "Ġd",
        "iá»ĩn"
      ],
      [
        "Ġd",
        "áºŃy"
      ],
      [
        "Ġk",
        "ia"
      ],
      [
        "Ġnh",
        "Ãºng"
      ],
      [
        "Ġnh",
        "áº¥n"
      ],
      [
        "Ġl",
        "ao"
      ],
      [
        "Ġs",
        "ay"
      ],
      [
        "Ġs",
        "Ãºc"
      ],
      [
        "Ġs",
        "áº£n"
      ],
      [
        "Ġch",
        "áºŃt"
      ],
      [
        "Ġb",
        "Ã³ng"
      ],
      [
        "Ġkh",
        "ung"
      ],
      [
        "Ġkh",
        "uyÃªn"
      ],
      [
        "Ġm",
        "Ã²"
      ],
      [
        "Ġn",
        "iá»ĩm"
      ],
      [
        "Ġn",
        "iá»ģm"
      ],
      [
        "Ġph",
        "Ã³"
      ],
      [
        "Ġph",
        "áº©"
      ],
      [
        "Ġng",
        "Æ°á»£c"
      ],
      [
        "Ġqu",
        "ay"
      ],
      [
        "Ġgi",
        "Ã³"
      ],
      [
        "á»ĳ",
        "n"
      ],
      [
        "ĠlÃł",
        "nh"
      ],
      [
        "Ã¹",
        "a"
      ],
      [
        "ĠmÃł",
        "y"
      ],
      [
        "ĠrÃ",
        "£i"
      ],
      [
        "iá»ħ",
        "u"
      ],
      [
        "Ġto",
        "eic"
      ],
      [
        "Ġ1",
        "2"
      ],
      [
        "on",
        "e"
      ],
      [
        "Ġso",
        "ur"
      ],
      [
        "ĠkhÃŃ",
        "a"
      ],
      [
        "Ġgh",
        "Ã©p"
      ],
      [
        "Ġquy",
        "á»ģn"
      ],
      [
        "Ġkhá»",
        "ķ"
      ],
      [
        "Ġ10",
        "0"
      ],
      [
        "or",
        "k"
      ],
      [
        "Ġli",
        "ste"
      ],
      [
        "Ġpos",
        "t"
      ],
      [
        "ĠkÃŃ",
        "nh"
      ],
      [
        "Ġpháº©",
        "m"
      ],
      [
        "Ġsour",
        "ce"
      ],
      [
        "Ġliste",
        "ning"
      ],
      [
        "b",
        "ig"
      ],
      [
        "k",
        "e"
      ],
      [
        "m",
        "ar"
      ],
      [
        "p",
        "l"
      ],
      [
        "u",
        "a"
      ],
      [
        "u",
        "n"
      ],
      [
        "w",
        "s"
      ],
      [
        "w",
        "ork"
      ],
      [
        "Ġ",
        "a"
      ],
      [
        "Ġ",
        "áº¥y"
      ],
      [
        "Ġ",
        "áº¥n"
      ],
      [
        "Ġ",
        "am"
      ],
      [
        "Ġ",
        "oo"
      ],
      [
        "Ġ",
        "Æ¡i"
      ],
      [
        "Ġ",
        "and"
      ],
      [
        "Ġt",
        "áº¯t"
      ],
      [
        "Ġth",
        "iÃªn"
      ],
      [
        "Ġth",
        "Ã¢m"
      ],
      [
        "Ġth",
        "ang"
      ],
      [
        "Ġh",
        "áº³"
      ],
      [
        "Ġh",
        "Ã¡i"
      ],
      [
        "Ġh",
        "iáº¿m"
      ],
      [
        "Ġh",
        "iá»ħu"
      ],
      [
        "Ãł",
        "u"
      ],
      [
        "ĠÄĳ",
        "Æ°Æ¡ng"
      ],
      [
        "ĠÄĳ",
        "Ã¹a"
      ],
      [
        "ĠÄĳ",
        "ua"
      ],
      [
        "Ġg",
        "ood"
      ],
      [
        "Ġd",
        "Ã¢y"
      ],
      [
        "Ġd",
        "Ã¡m"
      ],
      [
        "Ġk",
        "áº¹"
      ],
      [
        "Ġnh",
        "a"
      ],
      [
        "Ġnh",
        "áº¡t"
      ],
      [
        "Ġl",
        "ung"
      ],
      [
        "Ġs",
        "Ä©"
      ],
      [
        "Ġs",
        "Ã¡nh"
      ],
      [
        "áº¡",
        "o"
      ],
      [
        "Ġch",
        "Ãªnh"
      ],
      [
        "Ġb",
        "a"
      ],
      [
        "Ġb",
        "iÃªn"
      ],
      [
        "Ġb",
        "áº·"
      ],
      [
        "Ġb",
        "Ã¢y"
      ],
      [
        "Ġb",
        "á»ĳi"
      ],
      [
        "Ġm",
        "áº¿n"
      ],
      [
        "Ġm",
        "áº¯n"
      ],
      [
        "Ġtr",
        "Ãłn"
      ],
      [
        "Ã³",
        "i"
      ],
      [
        "Ġthá»",
        "«a"
      ],
      [
        "ĠÄĳá»",
        "įng"
      ],
      [
        "ĠÄĳá»",
        "©a"
      ],
      [
        "Ġr",
        "áº¡c"
      ],
      [
        "Ġdá»",
        "«ng"
      ],
      [
        "Ġp",
        "at"
      ],
      [
        "Ġph",
        "a"
      ],
      [
        "Ġph",
        "iÃªn"
      ],
      [
        "Ġph",
        "áº¡t"
      ],
      [
        "Ġph",
        "im"
      ],
      [
        "Ġqu",
        "á»ĳc"
      ],
      [
        "Ġgi",
        "Ã¡n"
      ],
      [
        "Ġchá»",
        "«ng"
      ],
      [
        "Æ°á»Ľ",
        "ng"
      ],
      [
        "Ġsá»",
        "ķ"
      ],
      [
        "Ġx",
        "e"
      ],
      [
        "Ġx",
        "áº¥u"
      ],
      [
        "Ġdá»¥",
        "c"
      ],
      [
        "ui",
        "t"
      ],
      [
        "ĠnÃł",
        "n"
      ],
      [
        "ĠmÃ¡",
        "t"
      ],
      [
        "Ġlá»",
        "ħ"
      ],
      [
        "Ġho",
        "áº¡"
      ],
      [
        "do",
        "ws"
      ],
      [
        "dot",
        "dot"
      ],
      [
        "Ġná»",
        "±c"
      ],
      [
        "Ġtu",
        "á»"
      ],
      [
        "Ġtu",
        "Ã¢n"
      ],
      [
        "Ġcolon",
        "big"
      ],
      [
        "Ġlo",
        "Ã¡t"
      ],
      [
        "ĠgiÃ¡",
        "m"
      ],
      [
        "Ġláº¡",
        "nh"
      ],
      [
        "Ġ20",
        "10"
      ],
      [
        "Ġkhá»",
        "Łi"
      ],
      [
        "Ġdot",
        "dotdot"
      ],
      [
        "Ġtrai",
        "ning"
      ],
      [
        "Ġwin",
        "dows"
      ],
      [
        "Ġsi",
        "l"
      ],
      [
        "ĠtÃ¹",
        "y"
      ],
      [
        "Ġser",
        "ver"
      ],
      [
        "Ġoo",
        "p"
      ],
      [
        "Ġháº³",
        "n"
      ],
      [
        "Ġbáº·",
        "m"
      ],
      [
        "Ġcolonbig",
        "smile"
      ],
      [
        "0",
        "0"
      ],
      [
        "2",
        "1"
      ],
      [
        "4",
        "5"
      ],
      [
        "b",
        "it"
      ],
      [
        "c",
        "o"
      ],
      [
        "i",
        "d"
      ],
      [
        "l",
        "smile"
      ],
      [
        "m",
        "ail"
      ],
      [
        "o",
        "du"
      ],
      [
        "p",
        "ri"
      ],
      [
        "r",
        "u"
      ],
      [
        "r",
        "am"
      ],
      [
        "r",
        "ac"
      ],
      [
        "r",
        "us"
      ],
      [
        "£",
        "t"
      ],
      [
        "¥",
        "t"
      ],
      [
        "§",
        "y"
      ],
      [
        "§",
        "ng"
      ],
      [
        "Ġ",
        "%"
      ],
      [
        "Ġ",
        "Ãł"
      ],
      [
        "Ġ",
        "Ãªm"
      ],
      [
        "Ġ",
        "Æ°á»Ľc"
      ],
      [
        "ı",
        "a"
      ],
      [
        "ķ",
        "ng"
      ],
      [
        "Ġt",
        "Ã´n"
      ],
      [
        "Ġt",
        "Ã¡n"
      ],
      [
        "Ġc",
        "a"
      ],
      [
        "Ġc",
        "li"
      ],
      [
        "Ġc",
        "áº©n"
      ],
      [
        "Ġv",
        "ai"
      ],
      [
        "Ġv",
        "Æ°á»£t"
      ],
      [
        "Ġv",
        "á»ĳn"
      ],
      [
        "Ġth",
        "Ã´"
      ],
      [
        "Ġth",
        "Ã¡c"
      ],
      [
        "Ġth",
        "áºŃn"
      ],
      [
        "Ġth",
        "áº¯ng"
      ],
      [
        "Ġth",
        "áº¯n"
      ],
      [
        "Ġth",
        "Æ°á»Łng"
      ],
      [
        "Ġth",
        "Ã¡ch"
      ],
      [
        "Ġh",
        "u"
      ],
      [
        "Ġh",
        "áº¡nh"
      ],
      [
        "ĠÄĳ",
        "Ãłnh"
      ],
      [
        "ĠÄĳ",
        "Æ°Æ¡"
      ],
      [
        "ĠÄĳ",
        "uá»ĳ"
      ],
      [
        "ĠÄĳ",
        "au"
      ],
      [
        "ĠÄĳ",
        "iá»ĥn"
      ],
      [
        "ĠÄĳ",
        "áº¡o"
      ],
      [
        "Ġg",
        "á»Ļ"
      ],
      [
        "Ġg",
        "áº¥p"
      ],
      [
        "Ġd",
        "Ã²"
      ],
      [
        "Ġd",
        "Ãłn"
      ],
      [
        "Ġk",
        "Ãª"
      ],
      [
        "Ġnh",
        "áº«n"
      ],
      [
        "Ġnh",
        "áº£m"
      ],
      [
        "Ġl",
        "Æ¡"
      ],
      [
        "Ġl",
        "Æ°Æ¡ng"
      ],
      [
        "Ġl",
        "au"
      ],
      [
        "Ġl",
        "Æ°á»Ŀi"
      ],
      [
        "Ġl",
        "á»ĳi"
      ],
      [
        "Ġch",
        "áº¿t"
      ],
      [
        "Ġch",
        "Äĥng"
      ],
      [
        "Ġch",
        "áº¥p"
      ],
      [
        "Ġch",
        "ang"
      ],
      [
        "Ġch",
        "áº·t"
      ],
      [
        "Ġb",
        "Ã©"
      ],
      [
        "Ġb",
        "Ãºt"
      ],
      [
        "Ġkh",
        "á»Ľ"
      ],
      [
        "Ġkh",
        "Ãºc"
      ],
      [
        "Ġm",
        "áº£ng"
      ],
      [
        "Ġm",
        "odu"
      ],
      [
        "Ġhá»",
        "Ŀi"
      ],
      [
        "Ġhá»",
        "¥t"
      ],
      [
        "Ġhá»",
        "§y"
      ],
      [
        "Ġn",
        "am"
      ],
      [
        "ĠÄĳá»",
        "£t"
      ],
      [
        "Ġr",
        "o"
      ],
      [
        "Ġdá»",
        "ĵn"
      ],
      [
        "Ġph",
        "p"
      ],
      [
        "Ġph",
        "á»ĳi"
      ],
      [
        "Ġng",
        "Ã¡n"
      ],
      [
        "Ġqu",
        "anh"
      ],
      [
        "Ġgi",
        "Æ¡"
      ],
      [
        "Ġgi",
        "Ãłnh"
      ],
      [
        "Ġchá»",
        "Ńi"
      ],
      [
        "Ġgiá»",
        "¯"
      ],
      [
        "ĠquÃ¡",
        "n"
      ],
      [
        "Ġtá»",
        "·"
      ],
      [
        "Ġx",
        "Ãłi"
      ],
      [
        "Ġtruy",
        "á»"
      ],
      [
        "Ġmá»",
        "±c"
      ],
      [
        "Ġlá»",
        "Ńa"
      ],
      [
        "Ġlá»",
        "ĵng"
      ],
      [
        "Ġthu",
        "áº§n"
      ],
      [
        "Ġho",
        "Ã¡"
      ],
      [
        "Ġho",
        "Ãłi"
      ],
      [
        "Ġho",
        "ang"
      ],
      [
        "Ġhá»£",
        "t"
      ],
      [
        "Ġvá»",
        "ĩ"
      ],
      [
        "Ġvá»",
        "Ł"
      ],
      [
        "Ġy",
        "Ãªn"
      ],
      [
        "Ġ1",
        "1"
      ],
      [
        "Ġ1",
        "3"
      ],
      [
        "Ġngá»",
        "¡"
      ],
      [
        "Ġngá»",
        "«ng"
      ],
      [
        "dot",
        "e"
      ],
      [
        "Ġcolon",
        "sm"
      ],
      [
        "Ġf",
        "or"
      ],
      [
        "ar",
        "e"
      ],
      [
        "ro",
        "id"
      ],
      [
        "Ġvi",
        "rus"
      ],
      [
        "Ġ4",
        "5"
      ],
      [
        "ur",
        "pri"
      ],
      [
        "al",
        "lsmile"
      ],
      [
        "Ã¨",
        "n"
      ],
      [
        "Ã¨",
        "o"
      ],
      [
        "Ġbá»¥",
        "ng"
      ],
      [
        "ĠhÃ³",
        "c"
      ],
      [
        "Ġwi",
        "res"
      ],
      [
        "es",
        "t"
      ],
      [
        "Ġj",
        "s"
      ],
      [
        "Ġ200",
        "8"
      ],
      [
        "har",
        "k"
      ],
      [
        "ĠthÆ°",
        "c"
      ],
      [
        "Ġte",
        "am"
      ],
      [
        "Ġver",
        "y"
      ],
      [
        "Ġht",
        "ml"
      ],
      [
        "pl",
        "us"
      ],
      [
        "Ġand",
        "roid"
      ],
      [
        "Ġkáº¹",
        "t"
      ],
      [
        "Ġtuá»",
        "ķi"
      ],
      [
        "Ġcli",
        "p"
      ],
      [
        "ĠÄĳÆ°Æ¡",
        "c"
      ],
      [
        "ĠÄĳuá»ĳ",
        "i"
      ],
      [
        "Ġgá»Ļ",
        "p"
      ],
      [
        "Ġkhá»Ľ",
        "p"
      ],
      [
        "Ġmodu",
        "le"
      ],
      [
        "Ġcolonsm",
        "allsmile"
      ],
      [
        "urpri",
        "se"
      ],
      [
        "Ġwires",
        "hark"
      ],
      [
        "2",
        "2"
      ],
      [
        "5",
        "5"
      ],
      [
        "5",
        "9"
      ],
      [
        "8",
        "3"
      ],
      [
        "a",
        "b"
      ],
      [
        "e",
        "d"
      ],
      [
        "f",
        "t"
      ],
      [
        "h",
        "i"
      ],
      [
        "h",
        "o"
      ],
      [
        "h",
        "one"
      ],
      [
        "i",
        "hi"
      ],
      [
        "m",
        "ent"
      ],
      [
        "o",
        "ut"
      ],
      [
        "p",
        "e"
      ],
      [
        "p",
        "hone"
      ],
      [
        "r",
        "e"
      ],
      [
        "s",
        "urprise"
      ],
      [
        "t",
        "u"
      ],
      [
        "¥",
        "p"
      ],
      [
        "§",
        "i"
      ],
      [
        "Ġ",
        "0"
      ],
      [
        "Ġ",
        "Ã´"
      ],
      [
        "Ġ",
        "uyÃªn"
      ],
      [
        "Ġ",
        "on"
      ],
      [
        "Ġ",
        "Ã©p"
      ],
      [
        "Ġ",
        "Æ°u"
      ],
      [
        "Ġ",
        "av"
      ],
      [
        "Ġ",
        "uit"
      ],
      [
        "ĩ",
        "n"
      ],
      [
        "ı",
        "m"
      ],
      [
        "ĵ",
        "m"
      ],
      [
        "á»",
        "Ĺi"
      ],
      [
        "Ġt",
        "an"
      ],
      [
        "Ġt",
        "ung"
      ],
      [
        "Ġt",
        "ui"
      ],
      [
        "Ġt",
        "Æ°Æ¡"
      ],
      [
        "Ġt",
        "ai"
      ],
      [
        "Ġt",
        "est"
      ],
      [
        "Ġc",
        "Ã¢y"
      ],
      [
        "Ġc",
        "áº¯t"
      ],
      [
        "Ġc",
        "áº§m"
      ],
      [
        "nh",
        "ihi"
      ],
      [
        "Ġv",
        "Ãª"
      ],
      [
        "Ġv",
        "áº¹"
      ],
      [
        "Ġth",
        "Ãły"
      ],
      [
        "Ġth",
        "Ã³i"
      ],
      [
        "Ġh",
        "iá»ģu"
      ],
      [
        "Ġh",
        "Ã´i"
      ],
      [
        "Ġh",
        "Ãłn"
      ],
      [
        "Ġh",
        "iÃªu"
      ],
      [
        "Ġh",
        "Ãło"
      ],
      [
        "Ġh",
        "áº¹p"
      ],
      [
        "Ġh",
        "Ãłm"
      ],
      [
        "ĠÄĳ",
        "Ã¡"
      ],
      [
        "ĠÄĳ",
        "áº¯n"
      ],
      [
        "ĠÄĳ",
        "áº¥u"
      ],
      [
        "ĠÄĳ",
        "uá»"
      ],
      [
        "ĠÄĳ",
        "Ã¡m"
      ],
      [
        "Ġg",
        "ram"
      ],
      [
        "Ġd",
        "e"
      ],
      [
        "Ġd",
        "Æ¡"
      ],
      [
        "Ġd",
        "ÃŃ"
      ],
      [
        "Ġd",
        "ay"
      ],
      [
        "Ġd",
        "Ã¢n"
      ],
      [
        "Ġnh",
        "áº¯m"
      ],
      [
        "Ġnh",
        "á»ĵi"
      ],
      [
        "Ġnh",
        "iá»ħ"
      ],
      [
        "Ġl",
        "á»Ļ"
      ],
      [
        "Ġl",
        "Ã¢m"
      ],
      [
        "Ġl",
        "Æ°á»£c"
      ],
      [
        "Ġl",
        "in"
      ],
      [
        "Ġl",
        "Ãµi"
      ],
      [
        "Ġl",
        "Æ°á»£t"
      ],
      [
        "Ġs",
        "ub"
      ],
      [
        "Ġs",
        "iÃªng"
      ],
      [
        "Ġs",
        "har"
      ],
      [
        "Ġs",
        "ho"
      ],
      [
        "áº¡",
        "p"
      ],
      [
        "Ġch",
        "at"
      ],
      [
        "Ġb",
        "áº§u"
      ],
      [
        "Ġb",
        "ai"
      ],
      [
        "Ġb",
        "áº©n"
      ],
      [
        "Ġb",
        "áº¡ch"
      ],
      [
        "Ġkh",
        "Ã¢u"
      ],
      [
        "Ġm",
        "iá»ĩ"
      ],
      [
        "Ġm",
        "Ã´ng"
      ],
      [
        "Ġm",
        "Æ°á»£"
      ],
      [
        "Ġm",
        "áºŃt"
      ],
      [
        "Ġm",
        "iá»ģn"
      ],
      [
        "Ġm",
        "áº¹"
      ],
      [
        "Ġtr",
        "an"
      ],
      [
        "Ġtr",
        "Ã²n"
      ],
      [
        "Ġtr",
        "Ãło"
      ],
      [
        "Ġn",
        "o"
      ],
      [
        "Ġn",
        "Ã£"
      ],
      [
        "Ġn",
        "áº¯ng"
      ],
      [
        "Ġn",
        "áº¡p"
      ],
      [
        "Ġthá»",
        "ıa"
      ],
      [
        "ĠÄĳá»",
        "©c"
      ],
      [
        "Ġr",
        "áºŃp"
      ],
      [
        "ĠvÃł",
        "ng"
      ],
      [
        "Ġdá»",
        "Ł"
      ],
      [
        "Ġdá»",
        "įn"
      ],
      [
        "Ġdá»",
        "ım"
      ],
      [
        "Ã¢",
        "p"
      ],
      [
        "Ġph",
        "Ãºc"
      ],
      [
        "Ġph",
        "áºŃn"
      ],
      [
        "Ġph",
        "Ãłn"
      ],
      [
        "Ġph",
        "iá»ģn"
      ],
      [
        "Ġph",
        "one"
      ],
      [
        "Ġng",
        "á»Ļt"
      ],
      [
        "Ġng",
        "uyá»ĩn"
      ],
      [
        "Ġqu",
        "Ãł"
      ],
      [
        "Ġcá»",
        "¡"
      ],
      [
        "Ġcá»",
        "ķ"
      ],
      [
        "Ġem",
        "ail"
      ],
      [
        "Ġtiáº¿",
        "c"
      ],
      [
        "Ġngh",
        "Ãłnh"
      ],
      [
        "Ġngh",
        "Ã¨o"
      ],
      [
        "Ġchá»",
        "ķ"
      ],
      [
        "Ġchá»",
        "¥p"
      ],
      [
        "Ġx",
        "á»Ļn"
      ],
      [
        "Ġx",
        "Æ°ng"
      ],
      [
        "áº«",
        "m"
      ],
      [
        "ĠÄĳá»Ļ",
        "c"
      ],
      [
        "Ã¹",
        "i"
      ],
      [
        "Ġlá»",
        "¡"
      ],
      [
        "Ġlá»",
        "įc"
      ],
      [
        "Ġthu",
        "a"
      ],
      [
        "ĠmÃł",
        "ng"
      ],
      [
        "Ġho",
        "c"
      ],
      [
        "Ġá»",
        "·"
      ],
      [
        "Ã£",
        "i"
      ],
      [
        "Ġco",
        "lo"
      ],
      [
        "Ġy",
        "out"
      ],
      [
        "Ġ2",
        "5"
      ],
      [
        "Ġto",
        "p"
      ],
      [
        "do",
        "uble"
      ],
      [
        "Ġtho",
        "Ã¡ng"
      ],
      [
        "ub",
        "e"
      ],
      [
        "Ġgá»",
        "ĵm"
      ],
      [
        "Ġná»",
        "Ĺi"
      ],
      [
        "Ġphá»",
        "§"
      ],
      [
        "Ġcolon",
        "double"
      ],
      [
        "Ġso",
        "Ã¡t"
      ],
      [
        "Ġcá»ĳ",
        "t"
      ],
      [
        "ac",
        "k"
      ],
      [
        "Ġ20",
        "12"
      ],
      [
        "ame",
        "work"
      ],
      [
        "ĠphÃŃ",
        "m"
      ],
      [
        "Ġkhá»",
        "ıi"
      ],
      [
        "Ġfr",
        "amework"
      ],
      [
        "Ġo",
        "ut"
      ],
      [
        "Ġo",
        "rac"
      ],
      [
        "Ġxá»",
        "©ng"
      ],
      [
        "Ġi",
        "s"
      ],
      [
        "lo",
        "g"
      ],
      [
        "ĠÄĳo",
        "Ã¡n"
      ],
      [
        "or",
        "d"
      ],
      [
        "Ġrá»",
        "ħ"
      ],
      [
        "Ġ8",
        "0"
      ],
      [
        "Ġ200",
        "5"
      ],
      [
        "Ġ200",
        "9"
      ],
      [
        "Ġ9",
        "0"
      ],
      [
        "dotv",
        "n"
      ],
      [
        "har",
        "p"
      ],
      [
        "Ġli",
        "ke"
      ],
      [
        "Ġcs",
        "harp"
      ],
      [
        "Ġpat",
        "in"
      ],
      [
        "Ġsil",
        "de"
      ],
      [
        "ru",
        "m"
      ],
      [
        "Ġtruyá»",
        "ĩn"
      ],
      [
        "ĠtÆ°Æ¡",
        "i"
      ],
      [
        "ĠÄĳuá»",
        "ķi"
      ],
      [
        "Ġgram",
        "mar"
      ],
      [
        "Ġnhiá»ħ",
        "m"
      ],
      [
        "Ġshar",
        "e"
      ],
      [
        "Ġsho",
        "w"
      ],
      [
        "Ġmiá»ĩ",
        "ng"
      ],
      [
        "ĠmÆ°á»£",
        "n"
      ],
      [
        "ĠnÃ£",
        "o"
      ],
      [
        "Ġcolo",
        "nhihi"
      ],
      [
        "Ġyout",
        "ube"
      ],
      [
        "Ġcolondouble",
        "surprise"
      ],
      [
        "Ġorac",
        "le"
      ],
      [
        "3",
        "14"
      ],
      [
        "4",
        "8"
      ],
      [
        "8",
        "0"
      ],
      [
        "8",
        "1"
      ],
      [
        "=",
        ")"
      ],
      [
        "a",
        "g"
      ],
      [
        "a",
        "x"
      ],
      [
        "a",
        "tion"
      ],
      [
        "c",
        "l"
      ],
      [
        "c",
        "rum"
      ],
      [
        "d",
        "a"
      ],
      [
        "d",
        "l"
      ],
      [
        "d",
        "ate"
      ],
      [
        "e",
        "l"
      ],
      [
        "e",
        "ed"
      ],
      [
        "f",
        "c"
      ],
      [
        "f",
        "ord"
      ],
      [
        "g",
        "h"
      ],
      [
        "g",
        "n"
      ],
      [
        "g",
        "er"
      ],
      [
        "i",
        "s"
      ],
      [
        "l",
        "ate"
      ],
      [
        "l",
        "ab"
      ],
      [
        "m",
        "e"
      ],
      [
        "m",
        "w"
      ],
      [
        "m",
        "it"
      ],
      [
        "n",
        "it"
      ],
      [
        "o",
        "x"
      ],
      [
        "o",
        "to"
      ],
      [
        "p",
        "ut"
      ],
      [
        "r",
        "ect"
      ],
      [
        "s",
        "o"
      ],
      [
        "s",
        "late"
      ],
      [
        "t",
        "s"
      ],
      [
        "t",
        "te"
      ],
      [
        "t",
        "phone"
      ],
      [
        "u",
        "x"
      ],
      [
        "u",
        "ter"
      ],
      [
        "v",
        "le"
      ],
      [
        "w",
        "n"
      ],
      [
        "x",
        "x"
      ],
      [
        "£",
        "p"
      ],
      [
        "©",
        "t"
      ],
      [
        "â",
        "Ģ"
      ],
      [
        "Ġ",
        "'"
      ],
      [
        "Ġ",
        ">"
      ],
      [
        "Ġ",
        "z"
      ],
      [
        "Ġ",
        "Æ°a"
      ],
      [
        "Ġ",
        "áº¯t"
      ],
      [
        "Ġ",
        "áº©n"
      ],
      [
        "Ġ",
        "ub"
      ],
      [
        "Ġ",
        "áº£o"
      ],
      [
        "Ġ",
        "Ã¡i"
      ],
      [
        "Ġ",
        "as"
      ],
      [
        "Ġ",
        "=)"
      ],
      [
        "Ġ",
        "âĢ"
      ],
      [
        "ħ",
        "n"
      ],
      [
        "Ġt",
        "áº§"
      ],
      [
        "Ġt",
        "iá»ĥu"
      ],
      [
        "Ġt",
        "Ã½"
      ],
      [
        "Ġt",
        "Æ°á»Ŀng"
      ],
      [
        "Ġt",
        "Ãºng"
      ],
      [
        "Ġt",
        "áº¥n"
      ],
      [
        "Ġt",
        "am"
      ],
      [
        "Ġt",
        "Ã¡nh"
      ],
      [
        "Ġt",
        "áº¥m"
      ],
      [
        "Ġt",
        "Ã²a"
      ],
      [
        "Ġt",
        "Ä©nh"
      ],
      [
        "Ġt",
        "iá»ģm"
      ],
      [
        "Ġt",
        "Æ°á»Ľng"
      ],
      [
        "Ġt",
        "Ã¢p"
      ],
      [
        "Ġc",
        "Ãº"
      ],
      [
        "Ġc",
        "am"
      ],
      [
        "Ġc",
        "Æ°á»¡"
      ],
      [
        "Ġc",
        "as"
      ],
      [
        "Ġc",
        "plus"
      ],
      [
        "Ġv",
        "áº§y"
      ],
      [
        "Ġv",
        "inh"
      ],
      [
        "Ġv",
        "Ã¢ng"
      ],
      [
        "Ġv",
        "áº·t"
      ],
      [
        "Ġv",
        "iá»ģn"
      ],
      [
        "Ġv",
        "uÃ´ng"
      ],
      [
        "Ġv",
        "Æ°á»Ľng"
      ],
      [
        "Ġth",
        "iá»ĩt"
      ],
      [
        "Ġth",
        "iá»ĥu"
      ],
      [
        "Ġth",
        "áº»"
      ],
      [
        "Ġth",
        "áº¥m"
      ],
      [
        "Ġth",
        "Äĥm"
      ],
      [
        "Ġth",
        "Æ¡i"
      ],
      [
        "Ġth",
        "áº¥u"
      ],
      [
        "Ġth",
        "Ã²i"
      ],
      [
        "Ġh",
        "Ã¬"
      ],
      [
        "Ġh",
        "áº£"
      ],
      [
        "Ġh",
        "ung"
      ],
      [
        "Ġh",
        "áº¯t"
      ],
      [
        "Ġh",
        "uá»ĳng"
      ],
      [
        "Ġh",
        "uyáº¿n"
      ],
      [
        "Ġh",
        "áºŃu"
      ],
      [
        "ĠÄĳ",
        "Ãªn"
      ],
      [
        "ĠÄĳ",
        "áº¿"
      ],
      [
        "ĠÄĳ",
        "an"
      ],
      [
        "ĠÄĳ",
        "iá»ĩu"
      ],
      [
        "ĠÄĳ",
        "áº»"
      ],
      [
        "ĠÄĳ",
        "en"
      ],
      [
        "ĠÄĳ",
        "áº£o"
      ],
      [
        "ĠÄĳ",
        "Ã¨n"
      ],
      [
        "Ãª",
        "ng"
      ],
      [
        "Ġg",
        "Ã¡p"
      ],
      [
        "Ġg",
        "anh"
      ],
      [
        "Ġg",
        "Ãłng"
      ],
      [
        "Ġg",
        "Ã¡nh"
      ],
      [
        "Ġg",
        "mail"
      ],
      [
        "Ġd",
        "áº¿"
      ],
      [
        "Ġd",
        "áº¯t"
      ],
      [
        "Ġd",
        "Ãły"
      ],
      [
        "Ġd",
        "Ã¡ng"
      ],
      [
        "Ġd",
        "eb"
      ],
      [
        "Ġd",
        "uyá»ĩt"
      ],
      [
        "Ġd",
        "Ãło"
      ],
      [
        "Ġd",
        "áº¥u"
      ],
      [
        "Ġk",
        "iá»ĥn"
      ],
      [
        "Ġnh",
        "Ã¢"
      ],
      [
        "Ġnh",
        "Ã¡c"
      ],
      [
        "Ġnh",
        "iá»ĥu"
      ],
      [
        "Ġnh",
        "Ã£"
      ],
      [
        "Ġnh",
        "uyá»"
      ],
      [
        "Ġnh",
        "iÃª"
      ],
      [
        "Ġnh",
        "Ã©t"
      ],
      [
        "Ġnh",
        "áº¡c"
      ],
      [
        "Ġl",
        "Ãºng"
      ],
      [
        "Ġl",
        "ang"
      ],
      [
        "Ġl",
        "áº§m"
      ],
      [
        "Ġl",
        "Æ°ng"
      ],
      [
        "Ġs",
        "á»¯a"
      ],
      [
        "Ġs",
        "mar"
      ],
      [
        "Ġs",
        "crum"
      ],
      [
        "Ġch",
        "á»Ľ"
      ],
      [
        "Ġch",
        "iáº¿n"
      ],
      [
        "Ġch",
        "Ãło"
      ],
      [
        "Ġch",
        "Ã¨n"
      ],
      [
        "Ġb",
        "áºŃ"
      ],
      [
        "Ġb",
        "iáº¿"
      ],
      [
        "Ġb",
        "Ã¡c"
      ],
      [
        "Ġb",
        "ÃŃ"
      ],
      [
        "Ġb",
        "á»ģ"
      ],
      [
        "Ġb",
        "áº¡i"
      ],
      [
        "Ġb",
        "áºŃt"
      ],
      [
        "Ġb",
        "áº¥m"
      ],
      [
        "Ġb",
        "Ã¨"
      ],
      [
        "Ġb",
        "áº¡c"
      ],
      [
        "Ġb",
        "as"
      ],
      [
        "Ġkh",
        "uyáº¿t"
      ],
      [
        "Ġkh",
        "iáº¿u"
      ],
      [
        "Ġkh",
        "en"
      ],
      [
        "Ġm",
        "áº¡i"
      ],
      [
        "Ġm",
        "ai"
      ],
      [
        "Ġm",
        "iá»ħn"
      ],
      [
        "Ġm",
        "áº¯t"
      ],
      [
        "Ġm",
        "á»ĳi"
      ],
      [
        "Ġgiáº",
        "Ń"
      ],
      [
        "Ġgiáº£",
        "nh"
      ],
      [
        "Ġhá»",
        "ķng"
      ],
      [
        "Ġtr",
        "áº§n"
      ],
      [
        "Ġtr",
        "eo"
      ],
      [
        "Ġtr",
        "Æ°ng"
      ],
      [
        "Ġtr",
        "ig"
      ],
      [
        "Ġn",
        "Æ°Æ¡ng"
      ],
      [
        "Ġn",
        "áº»"
      ],
      [
        "Ġn",
        "ame"
      ],
      [
        "Ġn",
        "áº±m"
      ],
      [
        "Ã³",
        "a"
      ],
      [
        "Ġthá»",
        "±"
      ],
      [
        "Ġthá»",
        "ĭ"
      ],
      [
        "Ġthá»",
        "Ł"
      ],
      [
        "iá»ĩ",
        "p"
      ],
      [
        "ĠÄĳá»",
        "Ĺ"
      ],
      [
        "ĠÄĳá»",
        "Ľi"
      ],
      [
        "Ġdáº¡",
        "t"
      ],
      [
        "Ġr",
        "e"
      ],
      [
        "Ġr",
        "áº»"
      ],
      [
        "Ġdá»",
        "ĥ"
      ],
      [
        "Ġdá»",
        "Ŀi"
      ],
      [
        "Ġp",
        "l"
      ],
      [
        "Ġp",
        "as"
      ],
      [
        "Ġph",
        "Ãª"
      ],
      [
        "Ġph",
        "á»ĳ"
      ],
      [
        "Ġph",
        "iáº¿u"
      ],
      [
        "Ġph",
        "oto"
      ],
      [
        "Ġng",
        "áº¡i"
      ],
      [
        "Ġng",
        "áºŃp"
      ],
      [
        "Ġng",
        "áº«m"
      ],
      [
        "Ġqu",
        "Äĥng"
      ],
      [
        "Ġqu",
        "Ã¢n"
      ],
      [
        "Ġqu",
        "Ã©t"
      ],
      [
        "Ġcho",
        "Ã¡ng"
      ],
      [
        "Ġgi",
        "ang"
      ],
      [
        "Ġgi",
        "Ã¢y"
      ],
      [
        "Ġgi",
        "Ãłu"
      ],
      [
        "á»ĳ",
        "t"
      ],
      [
        "Ġcá»",
        "Ŀ"
      ],
      [
        "á»Ļ",
        "i"
      ],
      [
        "em",
        "ent"
      ],
      [
        "Ġchá»",
        "¥c"
      ],
      [
        "Ġgiá»",
        "Ŀi"
      ],
      [
        "Ġx",
        "u"
      ],
      [
        "Ġx",
        "áº¡"
      ],
      [
        "Ġx",
        "Æ°a"
      ],
      [
        "Ġx",
        "ml"
      ],
      [
        "Ġx",
        "Ãłm"
      ],
      [
        "Ġx",
        "Ã³a"
      ],
      [
        "Ġbá»",
        "¡"
      ],
      [
        "Ġbá»",
        "ĵi"
      ],
      [
        "Ġbá»",
        "¥c"
      ],
      [
        "Ġtrá»",
        "įn"
      ],
      [
        "Ġtrá»",
        "«ng"
      ],
      [
        "ĠÄĳá»Ļ",
        "i"
      ],
      [
        "Ġmá»",
        "ĵ"
      ],
      [
        "ĠmÃ¡",
        "u"
      ],
      [
        "ĠÄĳá»ĵ",
        "m"
      ],
      [
        "ĠmÃł",
        "u"
      ],
      [
        "Ġho",
        "a"
      ],
      [
        "li",
        "gh"
      ],
      [
        "Ġsli",
        "le"
      ],
      [
        "Ġlu",
        "m"
      ],
      [
        "Ġdo",
        "wn"
      ],
      [
        "ĠÄĳÃ³",
        "i"
      ],
      [
        "Ġ2",
        "3"
      ],
      [
        "ĠthÃº",
        "y"
      ],
      [
        "Ġcáº£",
        "nh"
      ],
      [
        "Ġchu",
        "á»Ĺi"
      ],
      [
        "Ġngo",
        "n"
      ],
      [
        "Ġ1",
        "9"
      ],
      [
        "do",
        "ubledot"
      ],
      [
        "Ġnhá»",
        "ĭp"
      ],
      [
        "Ġnhá»",
        "±a"
      ],
      [
        "Ġngá»",
        "Ŀ"
      ],
      [
        "Ġngá»",
        "±a"
      ],
      [
        "Ġngá»",
        "£p"
      ],
      [
        "dot",
        "uit"
      ],
      [
        "Ġbá»ķ",
        "ng"
      ],
      [
        "Ġ3",
        "2"
      ],
      [
        "Ġgá»",
        "§i"
      ],
      [
        "Ġná»",
        "£"
      ],
      [
        "Ġná»",
        "Ĺ"
      ],
      [
        "Ġná»",
        "Ł"
      ],
      [
        "Ġrá»Ļ",
        "n"
      ],
      [
        "Ġso",
        "ft"
      ],
      [
        "Ġlo",
        "áº¡t"
      ],
      [
        "Ġlo",
        "ve"
      ],
      [
        "Ġtuy",
        "áº¿n"
      ],
      [
        "te",
        "p"
      ],
      [
        "Ġf",
        "i"
      ],
      [
        "Ġf",
        "eed"
      ],
      [
        "Ġ4",
        "0"
      ],
      [
        "Ġgh",
        "Ãª"
      ],
      [
        "Ġ20",
        "13"
      ],
      [
        "se",
        "tte"
      ],
      [
        "Ġmu",
        "a"
      ],
      [
        "si",
        "ve"
      ],
      [
        "si",
        "gn"
      ],
      [
        "Ġu",
        "á»"
      ],
      [
        "Ġcu",
        "te"
      ],
      [
        "ĠgÃ³",
        "c"
      ],
      [
        "ĠgÃ³",
        "i"
      ],
      [
        "Ġkhá»",
        "§ng"
      ],
      [
        "Ġcá»Ļ",
        "t"
      ],
      [
        "Ġdot",
        "net"
      ],
      [
        "Ġo",
        "ver"
      ],
      [
        "Ġup",
        "date"
      ],
      [
        "Ġ7",
        "5"
      ],
      [
        "Ġnhu",
        "áº§n"
      ],
      [
        "Ġlá»ĩ",
        "nh"
      ],
      [
        "Ġnháº¹",
        "n"
      ],
      [
        "Ġpro",
        "g"
      ],
      [
        "Ġpro",
        "log"
      ],
      [
        "Ġi",
        "m"
      ],
      [
        "Ġi",
        "os"
      ],
      [
        "Ġi",
        "da"
      ],
      [
        "Ġi",
        "el"
      ],
      [
        "Ġst",
        "and"
      ],
      [
        "lo",
        "ad"
      ],
      [
        "ter",
        "n"
      ],
      [
        "Ġtá»ī",
        "nh"
      ],
      [
        "13",
        "3"
      ],
      [
        "ver",
        "ligh"
      ],
      [
        "Ġ200",
        "3"
      ],
      [
        "Ġcolonsad",
        "co"
      ],
      [
        "Ġdi",
        "rect"
      ],
      [
        "Ġ6",
        "0"
      ],
      [
        "Ġ6",
        "4"
      ],
      [
        "Ġe",
        "ng"
      ],
      [
        "ĠtÃ¹",
        "m"
      ],
      [
        "Ġser",
        "vle"
      ],
      [
        "ĠmÃ£",
        "i"
      ],
      [
        "du",
        "dotvn"
      ],
      [
        "Ġte",
        "en"
      ],
      [
        "un",
        "tu"
      ],
      [
        "Ġa",
        "g"
      ],
      [
        "Ġpat",
        "tern"
      ],
      [
        "Ġsil",
        "verligh"
      ],
      [
        "ĠbÃ©",
        "o"
      ],
      [
        "Ġro",
        "uter"
      ],
      [
        "dote",
        "dudotvn"
      ],
      [
        "ĠÃ´",
        "m"
      ],
      [
        "Ġon",
        "line"
      ],
      [
        "Ġváº¹",
        "n"
      ],
      [
        "Ġlin",
        "ux"
      ],
      [
        "Ġsub",
        "mit"
      ],
      [
        "Ġtran",
        "slate"
      ],
      [
        "Ġtop",
        "ic"
      ],
      [
        "mw",
        "are"
      ],
      [
        "Ġub",
        "untu"
      ],
      [
        "Ġtáº§",
        "ng"
      ],
      [
        "ĠcÆ°á»¡",
        "i"
      ],
      [
        "Ġcas",
        "sette"
      ],
      [
        "Ġcplus",
        "plus"
      ],
      [
        "Ġdeb",
        "ate"
      ],
      [
        "ĠnhÃ¢",
        "t"
      ],
      [
        "Ġnhuyá»",
        "ħn"
      ],
      [
        "ĠnhiÃª",
        "t"
      ],
      [
        "Ġsmar",
        "tphone"
      ],
      [
        "ĠbáºŃ",
        "c"
      ],
      [
        "Ġbiáº¿",
        "ng"
      ],
      [
        "Ġbas",
        "ic"
      ],
      [
        "Ġtrig",
        "ger"
      ],
      [
        "Ġnáº»",
        "o"
      ],
      [
        "Ġpas",
        "te"
      ],
      [
        "dotuit",
        "dotedudotvn"
      ],
      [
        "Ġiel",
        "ts"
      ],
      [
        "Ġstand",
        "ford"
      ],
      [
        "Ġcolonsadco",
        "lon"
      ],
      [
        "Ġdirect",
        "x"
      ],
      [
        "Ġservle",
        "t"
      ],
      [
        "Ġsilverligh",
        "t"
      ],
      [
        "'",
        "s"
      ],
      [
        "1",
        "30"
      ],
      [
        "1",
        "12"
      ],
      [
        "1",
        "15"
      ],
      [
        "1",
        "19"
      ],
      [
        "1",
        "17"
      ],
      [
        "1",
        "16"
      ],
      [
        "1",
        "14"
      ],
      [
        "2",
        "30"
      ],
      [
        "2",
        "12"
      ],
      [
        "2",
        "13"
      ],
      [
        "2",
        "19"
      ],
      [
        "2",
        "24"
      ],
      [
        "2",
        "25"
      ],
      [
        "2",
        "27"
      ],
      [
        "2",
        "20"
      ],
      [
        "2",
        "29"
      ],
      [
        "2",
        "14"
      ],
      [
        "2",
        "26"
      ],
      [
        "2",
        "18"
      ],
      [
        "2",
        "11"
      ],
      [
        "2",
        "21"
      ],
      [
        "3",
        "5"
      ],
      [
        "3",
        "6"
      ],
      [
        "3",
        "7"
      ],
      [
        "3",
        "12"
      ],
      [
        "3",
        "10"
      ],
      [
        "3",
        "13"
      ],
      [
        "3",
        "15"
      ],
      [
        "3",
        "19"
      ],
      [
        "3",
        "23"
      ],
      [
        "3",
        "24"
      ],
      [
        "3",
        "25"
      ],
      [
        "3",
        "27"
      ],
      [
        "3",
        "17"
      ],
      [
        "3",
        "16"
      ],
      [
        "3",
        "26"
      ],
      [
        "3",
        "18"
      ],
      [
        "3",
        "11"
      ],
      [
        "3",
        "21"
      ],
      [
        "4",
        "3"
      ],
      [
        "4",
        "6"
      ],
      [
        "4",
        "7"
      ],
      [
        "5",
        "1"
      ],
      [
        "5",
        "2"
      ],
      [
        "5",
        "3"
      ],
      [
        "5",
        "4"
      ],
      [
        "6",
        "0"
      ],
      [
        "6",
        "1"
      ],
      [
        "6",
        "2"
      ],
      [
        "6",
        "3"
      ],
      [
        "6",
        "6"
      ],
      [
        "6",
        "7"
      ],
      [
        "6",
        "8"
      ],
      [
        "6",
        "9"
      ],
      [
        "7",
        "0"
      ],
      [
        "7",
        "1"
      ],
      [
        "7",
        "2"
      ],
      [
        "7",
        "3"
      ],
      [
        "7",
        "4"
      ],
      [
        "7",
        "5"
      ],
      [
        "7",
        "8"
      ],
      [
        "7",
        "9"
      ],
      [
        "8",
        "2"
      ],
      [
        "8",
        "5"
      ],
      [
        "8",
        "6"
      ],
      [
        "8",
        "7"
      ],
      [
        "8",
        "8"
      ],
      [
        "8",
        "9"
      ],
      [
        "9",
        "2"
      ],
      [
        "9",
        "3"
      ],
      [
        "9",
        "4"
      ],
      [
        "9",
        "7"
      ],
      [
        "9",
        "8"
      ],
      [
        "9",
        "9"
      ],
      [
        ";",
        ")"
      ],
      [
        "a",
        "p"
      ],
      [
        "a",
        "se"
      ],
      [
        "b",
        "e"
      ],
      [
        "b",
        "l"
      ],
      [
        "b",
        "y"
      ],
      [
        "b",
        "le"
      ],
      [
        "b",
        "in"
      ],
      [
        "b",
        "pe"
      ],
      [
        "b",
        "ack"
      ],
      [
        "b",
        "cl"
      ],
      [
        "b",
        "ox"
      ],
      [
        "b",
        "ase"
      ],
      [
        "c",
        "t"
      ],
      [
        "c",
        "ke"
      ],
      [
        "d",
        "f"
      ],
      [
        "d",
        "g"
      ],
      [
        "d",
        "y"
      ],
      [
        "d",
        "sm"
      ],
      [
        "d",
        "ing"
      ],
      [
        "e",
        "e"
      ],
      [
        "e",
        "p"
      ],
      [
        "e",
        "t"
      ],
      [
        "e",
        "w"
      ],
      [
        "e",
        "ver"
      ],
      [
        "f",
        "d"
      ],
      [
        "f",
        "un"
      ],
      [
        "g",
        "o"
      ],
      [
        "h",
        "m"
      ],
      [
        "h",
        "ile"
      ],
      [
        "h",
        "ing"
      ],
      [
        "h",
        "dl"
      ],
      [
        "i",
        "ke"
      ],
      [
        "i",
        "ew"
      ],
      [
        "k",
        "y"
      ],
      [
        "l",
        "g"
      ],
      [
        "l",
        "l"
      ],
      [
        "l",
        "as"
      ],
      [
        "m",
        "f"
      ],
      [
        "m",
        "ment"
      ],
      [
        "n",
        "p"
      ],
      [
        "n",
        "y"
      ],
      [
        "n",
        "sive"
      ],
      [
        "n",
        "ike"
      ],
      [
        "o",
        "m"
      ],
      [
        "o",
        "ay"
      ],
      [
        "o",
        "lon"
      ],
      [
        "o",
        "te"
      ],
      [
        "o",
        "us"
      ],
      [
        "o",
        "is"
      ],
      [
        "o",
        "hm"
      ],
      [
        "p",
        "p"
      ],
      [
        "p",
        "t"
      ],
      [
        "p",
        "v"
      ],
      [
        "p",
        "box"
      ],
      [
        "q",
        "u"
      ],
      [
        "q",
        "ui"
      ],
      [
        "r",
        "t"
      ],
      [
        "r",
        "ay"
      ],
      [
        "r",
        "an"
      ],
      [
        "r",
        "ch"
      ],
      [
        "r",
        "it"
      ],
      [
        "r",
        "nit"
      ],
      [
        "r",
        "ement"
      ],
      [
        "r",
        "mware"
      ],
      [
        "s",
        "h"
      ],
      [
        "s",
        "p"
      ],
      [
        "s",
        "y"
      ],
      [
        "s",
        "em"
      ],
      [
        "s",
        "er"
      ],
      [
        "s",
        "ag"
      ],
      [
        "t",
        "f"
      ],
      [
        "t",
        "ic"
      ],
      [
        "t",
        "ro"
      ],
      [
        "t",
        "hing"
      ],
      [
        "u",
        "m"
      ],
      [
        "u",
        "p"
      ],
      [
        "u",
        "ll"
      ],
      [
        "v",
        "d"
      ],
      [
        "v",
        "en"
      ],
      [
        "v",
        "iew"
      ],
      [
        "w",
        "ea"
      ],
      [
        "w",
        "it"
      ],
      [
        "x",
        "y"
      ],
      [
        "x",
        "te"
      ],
      [
        "y",
        "le"
      ],
      [
        "y",
        "thing"
      ],
      [
        "z",
        "e"
      ],
      [
        "¡",
        "n"
      ],
      [
        "¡",
        "y"
      ],
      [
        "¥",
        "ng"
      ],
      [
        "§",
        "a"
      ],
      [
        "Ä",
        "ĳ"
      ],
      [
        "Å",
        "©ng"
      ],
      [
        "Ġ",
        "&"
      ],
      [
        "Ġ",
        "Æ°"
      ],
      [
        "Ġ",
        "Æ¡"
      ],
      [
        "Ġ",
        "uy"
      ],
      [
        "Ġ",
        "Ã²"
      ],
      [
        "Ġ",
        "Ã¡o"
      ],
      [
        "Ġ",
        "an"
      ],
      [
        "Ġ",
        "Ã¹"
      ],
      [
        "Ġ",
        "Ã¢u"
      ],
      [
        "Ġ",
        "Ã´i"
      ],
      [
        "Ġ",
        "áº¥m"
      ],
      [
        "Ġ",
        "ea"
      ],
      [
        "Ġ",
        "ic"
      ],
      [
        "Ġ",
        "er"
      ],
      [
        "Ġ",
        "al"
      ],
      [
        "Ġ",
        "uá»ĳng"
      ],
      [
        "Ġ",
        "uyá»ĥn"
      ],
      [
        "Ġ",
        "ad"
      ],
      [
        "Ġ",
        "Æ°á»Ľt"
      ],
      [
        "Ġ",
        "at"
      ],
      [
        "Ġ",
        "Ã³c"
      ],
      [
        "Ġ",
        "Æ°ng"
      ],
      [
        "Ġ",
        "ebook"
      ],
      [
        "Ġ",
        "á»ĳc"
      ],
      [
        "Ġ",
        "Ãłm"
      ],
      [
        "Ġ",
        "are"
      ],
      [
        "Ġ",
        ";)"
      ],
      [
        "ī",
        "Ãªn"
      ],
      [
        "į",
        "a"
      ],
      [
        "Ĺ",
        "ng"
      ],
      [
        "á»",
        "¹"
      ],
      [
        "á»",
        "ĵng"
      ],
      [
        "Ġt",
        "Ãł"
      ],
      [
        "Ġt",
        "Ãª"
      ],
      [
        "Ġt",
        "Ã¡"
      ],
      [
        "Ġt",
        "Ã´"
      ],
      [
        "Ġt",
        "á»Ľ"
      ],
      [
        "Ġt",
        "Ã²"
      ],
      [
        "Ġt",
        "áº¿t"
      ],
      [
        "Ġt",
        "áº¡t"
      ],
      [
        "Ġt",
        "ao"
      ],
      [
        "Ġt",
        "áº»"
      ],
      [
        "Ġt",
        "Ã©"
      ],
      [
        "Ġt",
        "Ãªu"
      ],
      [
        "Ġt",
        "ea"
      ],
      [
        "Ġt",
        "áº³ng"
      ],
      [
        "Ġt",
        "iÃª"
      ],
      [
        "Ġt",
        "iá»ĩm"
      ],
      [
        "Ġt",
        "uyá»ĥn"
      ],
      [
        "Ġt",
        "im"
      ],
      [
        "Ġt",
        "á»Ļi"
      ],
      [
        "Ġt",
        "mf"
      ],
      [
        "Ġc",
        "Ã¡p"
      ],
      [
        "Ġc",
        "au"
      ],
      [
        "Ġc",
        "áº¡n"
      ],
      [
        "Ġc",
        "Ãły"
      ],
      [
        "Ġc",
        "áº©"
      ],
      [
        "Ġc",
        "áº¥m"
      ],
      [
        "Ġc",
        "áº·p"
      ],
      [
        "Ġc",
        "dio"
      ],
      [
        "Ġc",
        "áºŃu"
      ],
      [
        "Ġc",
        "Ãłu"
      ],
      [
        "Ġc",
        "rac"
      ],
      [
        "Ġc",
        "are"
      ],
      [
        "Ġc",
        "Ã¹i"
      ],
      [
        "Ġc",
        "Ã£i"
      ],
      [
        "Ġc",
        "las"
      ],
      [
        "Ġc",
        "np"
      ],
      [
        "Ġc",
        "rt"
      ],
      [
        "Ġv",
        "a"
      ],
      [
        "Ġv",
        "u"
      ],
      [
        "Ġv",
        "Ãªn"
      ],
      [
        "Ġv",
        "Ã¡"
      ],
      [
        "Ġv",
        "áº¡"
      ],
      [
        "Ġv",
        "áº§"
      ],
      [
        "Ġv",
        "Æ¡"
      ],
      [
        "Ġv",
        "áº§n"
      ],
      [
        "Ġv",
        "iáº¿n"
      ],
      [
        "Ġv",
        "Ã²"
      ],
      [
        "Ġv",
        "Æ°Æ¡"
      ],
      [
        "Ġv",
        "ang"
      ],
      [
        "Ġv",
        "Ã£"
      ],
      [
        "Ġv",
        "iá»ħn"
      ],
      [
        "Ġv",
        "on"
      ],
      [
        "Ġv",
        "Æ¡i"
      ],
      [
        "Ġv",
        "áº·n"
      ],
      [
        "Ġv",
        "Ãµ"
      ],
      [
        "Ġv",
        "ec"
      ],
      [
        "Ġv",
        "Ã³c"
      ],
      [
        "Ġv",
        "Ã³i"
      ],
      [
        "Ġv",
        "mware"
      ],
      [
        "Ġv",
        "hdl"
      ],
      [
        "Ġv",
        "ote"
      ],
      [
        "Ġth",
        "e"
      ],
      [
        "Ġth",
        "Ãł"
      ],
      [
        "Ġth",
        "Ãª"
      ],
      [
        "Ġth",
        "Æ¡"
      ],
      [
        "Ġth",
        "áº£"
      ],
      [
        "Ġth",
        "em"
      ],
      [
        "Ġth",
        "an"
      ],
      [
        "Ġth",
        "áº£m"
      ],
      [
        "Ġth",
        "uyÃªn"
      ],
      [
        "Ġth",
        "Æ°á»Ľc"
      ],
      [
        "Ġth",
        "Ã¢y"
      ],
      [
        "Ġth",
        "áºŃy"
      ],
      [
        "Ġth",
        "Ã¨m"
      ],
      [
        "Ġth",
        "áº©y"
      ],
      [
        "Ġth",
        "pt"
      ],
      [
        "Ġh",
        "e"
      ],
      [
        "Ġh",
        "áº¡"
      ],
      [
        "Ġh",
        "iÃªn"
      ],
      [
        "Ġh",
        "Ãº"
      ],
      [
        "Ġh",
        "Ã¢m"
      ],
      [
        "Ġh",
        "an"
      ],
      [
        "Ġh",
        "áº¡t"
      ],
      [
        "Ġh",
        "Ã²ng"
      ],
      [
        "Ġh",
        "ao"
      ],
      [
        "Ġh",
        "Ã¹"
      ],
      [
        "Ġh",
        "iá»ĥm"
      ],
      [
        "Ġh",
        "Ã¡t"
      ],
      [
        "Ġh",
        "iáº¿u"
      ],
      [
        "Ġh",
        "Ã³m"
      ],
      [
        "Ġh",
        "Ã¹ng"
      ],
      [
        "Ġh",
        "ub"
      ],
      [
        "Ġh",
        "ea"
      ],
      [
        "Ġh",
        "áº¹"
      ],
      [
        "Ġh",
        "áº§m"
      ],
      [
        "Ġh",
        "iá»ĥn"
      ],
      [
        "Ġh",
        "Ã¨"
      ],
      [
        "Ġh",
        "áº¡ng"
      ],
      [
        "Ġh",
        "Ã£i"
      ],
      [
        "Ġh",
        "ack"
      ],
      [
        "Ġh",
        "dl"
      ],
      [
        "Ġh",
        "iá»ĩp"
      ],
      [
        "ĠÄĳ",
        "Ãł"
      ],
      [
        "ĠÄĳ",
        "Ãª"
      ],
      [
        "ĠÄĳ",
        "Ã¬nh"
      ],
      [
        "ĠÄĳ",
        "Ãłi"
      ],
      [
        "ĠÄĳ",
        "áº¥t"
      ],
      [
        "ĠÄĳ",
        "Æ¡"
      ],
      [
        "ĠÄĳ",
        "iá»ĥu"
      ],
      [
        "ĠÄĳ",
        "ÃŃ"
      ],
      [
        "ĠÄĳ",
        "Ã¢m"
      ],
      [
        "ĠÄĳ",
        "Ã²"
      ],
      [
        "ĠÄĳ",
        "ao"
      ],
      [
        "ĠÄĳ",
        "áºŃt"
      ],
      [
        "ĠÄĳ",
        "áº¥y"
      ],
      [
        "ĠÄĳ",
        "Ä©"
      ],
      [
        "ĠÄĳ",
        "áº¯t"
      ],
      [
        "ĠÄĳ",
        "áº±ng"
      ],
      [
        "ĠÄĳ",
        "áº¯ng"
      ],
      [
        "ĠÄĳ",
        "áº·p"
      ],
      [
        "ĠÄĳ",
        "áº¯p"
      ],
      [
        "ĠÄĳ",
        "áº³ng"
      ],
      [
        "ĠÄĳ",
        "Ã¨"
      ],
      [
        "ĠÄĳ",
        "áº¡ng"
      ],
      [
        "ĠÄĳ",
        "Ä©nh"
      ],
      [
        "ĠÄĳ",
        "áº¡m"
      ],
      [
        "ĠÄĳ",
        "áº¡c"
      ],
      [
        "ĠÄĳ",
        "Ãłu"
      ],
      [
        "ĠÄĳ",
        "áº«m"
      ],
      [
        "ĠÄĳ",
        "bcl"
      ],
      [
        "Ġg",
        "b"
      ],
      [
        "Ġg",
        "t"
      ],
      [
        "Ġg",
        "Ã¡c"
      ],
      [
        "Ġg",
        "ay"
      ],
      [
        "Ġg",
        "áº«n"
      ],
      [
        "Ġg",
        "Ã¡n"
      ],
      [
        "Ġg",
        "ao"
      ],
      [
        "Ġg",
        "Æ°á»£ng"
      ],
      [
        "Ġg",
        "ro"
      ],
      [
        "Ġg",
        "Ã¡i"
      ],
      [
        "Ġg",
        "áº¡y"
      ],
      [
        "Ġg",
        "áº¡ch"
      ],
      [
        "Ġg",
        "á»ĳc"
      ],
      [
        "Ġg",
        "áº¡o"
      ],
      [
        "Ġg",
        "om"
      ],
      [
        "Ġd",
        "u"
      ],
      [
        "Ġd",
        "áº§y"
      ],
      [
        "Ġd",
        "Ã´ng"
      ],
      [
        "Ġd",
        "áº£"
      ],
      [
        "Ġd",
        "Æ°á»£c"
      ],
      [
        "Ġd",
        "an"
      ],
      [
        "Ġd",
        "Ã¡n"
      ],
      [
        "Ġd",
        "Ãºng"
      ],
      [
        "Ġd",
        "uyÃªn"
      ],
      [
        "Ġd",
        "Ã£"
      ],
      [
        "Ġd",
        "áº½"
      ],
      [
        "Ġd",
        "ro"
      ],
      [
        "Ġd",
        "áº¹p"
      ],
      [
        "Ġd",
        "Æ°á»¡ng"
      ],
      [
        "Ġd",
        "ri"
      ],
      [
        "Ġd",
        "iá»ħu"
      ],
      [
        "Ġd",
        "re"
      ],
      [
        "Ġd",
        "Ã£i"
      ],
      [
        "Ġd",
        "bpe"
      ],
      [
        "Ġd",
        "fd"
      ],
      [
        "Ġd",
        "vd"
      ],
      [
        "Ġd",
        "Å©ng"
      ],
      [
        "Ġk",
        "m"
      ],
      [
        "Ġk",
        "o"
      ],
      [
        "Ġk",
        "ay"
      ],
      [
        "Ġk",
        "iá»ħn"
      ],
      [
        "Ġk",
        "iÃªm"
      ],
      [
        "Ġk",
        "iá»ĩm"
      ],
      [
        "Ġk",
        "iá»ĩp"
      ],
      [
        "Ġnh",
        "o"
      ],
      [
        "Ġnh",
        "Ã¡"
      ],
      [
        "Ġnh",
        "Ã³"
      ],
      [
        "Ġnh",
        "ÃŃ"
      ],
      [
        "Ġnh",
        "an"
      ],
      [
        "Ġnh",
        "ai"
      ],
      [
        "Ġnh",
        "áº½"
      ],
      [
        "Ġnh",
        "iáº¿u"
      ],
      [
        "Ġnh",
        "Äĥn"
      ],
      [
        "Ġnh",
        "áº±ng"
      ],
      [
        "Ġnh",
        "áº·t"
      ],
      [
        "Ġnh",
        "áº¯n"
      ],
      [
        "Ġnh",
        "áº£nh"
      ],
      [
        "Ġnh",
        "áº¡y"
      ],
      [
        "Ġnh",
        "Ã³i"
      ],
      [
        "Ġl",
        "Ãª"
      ],
      [
        "Ġl",
        "Ã´ng"
      ],
      [
        "Ġl",
        "iá»ĩt"
      ],
      [
        "Ġl",
        "iá»ģu"
      ],
      [
        "Ġl",
        "ÃŃ"
      ],
      [
        "Ġl",
        "áº¯c"
      ],
      [
        "Ġl",
        "áº»"
      ],
      [
        "Ġl",
        "uyÃªn"
      ],
      [
        "Ġl",
        "Ã£"
      ],
      [
        "Ġl",
        "eo"
      ],
      [
        "Ġl",
        "áºŃn"
      ],
      [
        "Ġl",
        "Ã¡t"
      ],
      [
        "Ġl",
        "Æ°á»Ľc"
      ],
      [
        "Ġl",
        "áº¥n"
      ],
      [
        "Ġl",
        "áº·t"
      ],
      [
        "Ġl",
        "áº£ng"
      ],
      [
        "Ġl",
        "áº¹"
      ],
      [
        "Ġl",
        "iÃªu"
      ],
      [
        "Ġl",
        "Ãµ"
      ],
      [
        "Ġl",
        "Ã¨o"
      ],
      [
        "Ġl",
        "Ã¢p"
      ],
      [
        "Ġs",
        "u"
      ],
      [
        "Ġs",
        "Ã´"
      ],
      [
        "Ġs",
        "Ã¡o"
      ],
      [
        "Ġs",
        "eo"
      ],
      [
        "Ġs",
        "Ãłn"
      ],
      [
        "Ġs",
        "ea"
      ],
      [
        "Ġs",
        "Æ°u"
      ],
      [
        "Ġs",
        "to"
      ],
      [
        "Ġs",
        "at"
      ],
      [
        "Ġs",
        "Æ°á»Ľng"
      ],
      [
        "Ġs",
        "rum"
      ],
      [
        "Ġs",
        "tep"
      ],
      [
        "Ġs",
        "ever"
      ],
      [
        "Ġs",
        "ky"
      ],
      [
        "Ġs",
        "wit"
      ],
      [
        "Ġch",
        "a"
      ],
      [
        "Ġch",
        "Ã¬"
      ],
      [
        "Ġch",
        "ay"
      ],
      [
        "Ġch",
        "ui"
      ],
      [
        "Ġch",
        "Æ°á»Ŀng"
      ],
      [
        "Ġch",
        "áº¥y"
      ],
      [
        "Ġch",
        "áºŃp"
      ],
      [
        "Ġch",
        "áº¥n"
      ],
      [
        "Ġch",
        "ai"
      ],
      [
        "Ġch",
        "Ãłn"
      ],
      [
        "Ġch",
        "áº¯t"
      ],
      [
        "Ġch",
        "áº¯p"
      ],
      [
        "Ġch",
        "á»ĳi"
      ],
      [
        "Ġch",
        "áº·n"
      ],
      [
        "Ġch",
        "áºµn"
      ],
      [
        "Ġch",
        "Ã³t"
      ],
      [
        "Ġch",
        "ec"
      ],
      [
        "Ġch",
        "uyáº¿n"
      ],
      [
        "Ġch",
        "áº£y"
      ],
      [
        "Ġch",
        "áº¡m"
      ],
      [
        "Ġch",
        "uá»ĳt"
      ],
      [
        "Ġch",
        "á»ĳn"
      ],
      [
        "Ġch",
        "Ã¹i"
      ],
      [
        "Ġch",
        "á»ĳt"
      ],
      [
        "Ġch",
        "á»Ļi"
      ],
      [
        "Ġb",
        "i"
      ],
      [
        "Ġb",
        "Ãª"
      ],
      [
        "Ġb",
        "Ãº"
      ],
      [
        "Ġb",
        "ay"
      ],
      [
        "Ġb",
        "áº¯c"
      ],
      [
        "Ġb",
        "Ã¡n"
      ],
      [
        "Ġb",
        "áº»"
      ],
      [
        "Ġb",
        "áº¥y"
      ],
      [
        "Ġb",
        "Ã´i"
      ],
      [
        "Ġb",
        "Äĥn"
      ],
      [
        "Ġb",
        "Ã¢ng"
      ],
      [
        "Ġb",
        "áº¯ng"
      ],
      [
        "Ġb",
        "Äĥm"
      ],
      [
        "Ġb",
        "Æ¡i"
      ],
      [
        "Ġb",
        "Ãło"
      ],
      [
        "Ġb",
        "os"
      ],
      [
        "Ġb",
        "ook"
      ],
      [
        "Ġb",
        "Æ°ng"
      ],
      [
        "Ġb",
        "ia"
      ],
      [
        "Ġb",
        "ri"
      ],
      [
        "Ġb",
        "Ãłu"
      ],
      [
        "Ġb",
        "est"
      ],
      [
        "Ġb",
        "ox"
      ],
      [
        "Ġb",
        "ohm"
      ],
      [
        "Ġkh",
        "inh"
      ],
      [
        "Ġkh",
        "Ã¢m"
      ],
      [
        "Ġkh",
        "áº©n"
      ],
      [
        "Ġkh",
        "áº¯n"
      ],
      [
        "Ġkh",
        "áº³ng"
      ],
      [
        "Ġm",
        "a"
      ],
      [
        "Ġm",
        "Ã³"
      ],
      [
        "Ġm",
        "á»Ľ"
      ],
      [
        "Ġm",
        "Ãłi"
      ],
      [
        "Ġm",
        "iá»ĩt"
      ],
      [
        "Ġm",
        "Ã¡c"
      ],
      [
        "Ġm",
        "á»Ļ"
      ],
      [
        "Ġm",
        "Æ°a"
      ],
      [
        "Ġm",
        "áº«n"
      ],
      [
        "Ġm",
        "Äĥng"
      ],
      [
        "Ġm",
        "áº£i"
      ],
      [
        "Ġm",
        "Ã¹"
      ],
      [
        "Ġm",
        "Ã²n"
      ],
      [
        "Ġm",
        "Ã¢u"
      ],
      [
        "Ġm",
        "áºŃp"
      ],
      [
        "Ġm",
        "Ã¢y"
      ],
      [
        "Ġm",
[...]
